h e
Ġ t
Ġ a
Ġ s
Ġ w
Ġt he
n d
e d
i n
Ġa nd
Ġw a
Ġ b
Ġt o
r e
Ġ h
o u
i t
Ġ f
e r
Ġwa s
Ġ l
Ġ c
Ġ he
Ġ p
in g
Ġ d
Ġ m
Ġ g
Ġ o
a r
i s
i d
a y
o m
a t
l l
e n
Ġs a
n e
T he
l e
Ġt h
a n
i m
Ġh a
o r
Ġ it
e t
v er
l d
Ġ in
Ġ S
o n
Ġ e
c e
Ġb e
Ġhe r
i r
Ġ "
Ġ H
Ġsa id
Ġ u
Ġ n
c k
o w
r i
Ġ The
Ġs he
Ġs o
s t
Ġ y
ĠH e
o t
Ġo f
i l
Ġs t
u t
k e
a m
k ed
o o
p p
Ġ I
Ġ r
ĠS he
ver y
v e
Ġth at
i g
Ġ Ċ
it h
Ġh is
Ġu p
Ġd ay
Ġw ith
Ġy ou
Ġp l
it t
ou ld
e l
t ed
en t
a d
Ġha d
Ġ J
ou nd
Ġw e
a l
itt le
he r
' s
Ġs m
Ġpl ay
a ck
e nd
Ġthe y
Ġthe re
im e
l y
Ġs h
Ġl ittle
Ġ re
ou t
Ġ ne
Ġt ime
Ġf or
u n
c h
s e
Ġha pp
om e
Ġw h
m y
h t
u m
Ĥ ¬
Ã ¢
â Ĥ¬
Ġf ri
Ġa s
Ġ very
Ġfri end
a ll
t er
O n
Ġ k
v ed
Ġ T
Ġo n
ir l
On ce
u g
i ll
Ġg irl
Ġa n
e s
Ġe x
! "
' t
e c
Ġb ut
Ġl oo
. "
Ġl i
Ġwe re
Ġwa n
Ġb o
Ġhapp y
O ne
a ke
o re
Ġb ig
f u
Ġs p
id e
Ġsa w
Ġ B
h ing
Ġup on
Ġ out
ar d
Ġc ould
i c
il ed
o ne
r ound
r a
r y
Ġsm iled
Ġh im
Ġ A
Ġm om
he n
w ay
u r
ĠI t
fu l
Ġ M
a in
Ġw ent
Ġhe l
Ġwan ted
Ġn ot
ĠThe y
i nd
a re
e ar
Ġa ll
Ġfriend s
Ġg o
Ġhel p
Ġto o
il y
am e
ĠT im
Ġ L
om et
Ġl o
g ht
Ġs omet
Ġa t
Ġd o
Ġas ked
Ġa round
re e
Ġ j
? "
Ġloo ked
Ġsomet hing
Ġs e
Ġw or
d d
he d
oo d
Ġc l
Ġc an
am ed
r o
Ġb ack
ar k
Ġ E
k ing
r om
Ġex c
a b
i ck
u re
Ġw ould
g et
Ġf a
s s
Ġa g
Ġn amed
Ġst ar
Ġbo y
Ġexc it
Ġa l
Ġo ld
i ce
s ide
Ġf e
Ġ is
a g
e p
i e
Ġg et
h at
p l
Ġc h
Ġn o
Ġr an
Ġstar ted
e a
r an
u st
Ġw hen
Ġha ve
get her
u s
Ġlo ved
h n
o hn
Ġexcit ed
n t
Ġthe m
on g
Ġwh o
Ġag ain
Ġh ome
Ġm an
el t
Ġwa l
Ġf elt
Ġ One
Ġf un
Ġ Ã¢
Ġthe n
Ġto gether
Ġ W
Ġa way
Ġs c
Ġp ark
Ġsa d
ĠJ ack
n y
Å ĵ
Ġf ound
Ġe very
Ġ D
Ġd id
Ġplay ing
a ug
ou se
Ġm e
um my
q u
Ġa b
Ġs ome
Ġfe el
Ġthe ir
ou ght
pp ed
Ġ ke
Ġp o
Ġli ke
u dd
Ġf l
ec i
t her
Ġc are
Ġth ing
Ġne ver
Ġo ther
ll y
Ġsp eci
Ġspeci al
e m
Ġth is
o p
ad e
u c
u ch
Ġb ir
Ġm ake
ow n
Ġ F
Ġf rom
Ġp r
way s
udd en
Ġ v
Ġ en
i f
p t
Ġt ake
Ġt ree
Ġl ot
Ġc o
Ġth an
Ġbe c
âĤ¬ â
Ġal ways
Ġwa ter
ar ed
ig ht
Ġne w
ĠB ut
udden ly
Ġ qu
a ce
d y
f ter
Ġs un
Ġth ought
Ġto y
ou r
is e
Ġex pl
, "
i le
o s
ou d
Ġd ec
Ġm ade
ou s
Ġo ne
Ġr o
Ġsm all
Ġwh at
Ġg ot
id ed
Ġin t
ri ed
Ġab out
Ġbir d
Ġdec ided
m a
Ġs w
nd er
Ġp ut
Ħ ¢
Ġt w
Ġg ra
âĤ¬â Ħ¢
Ġh ow
Ġm y
Ġg ood
an t
Ġout side
Ġcould n
ab le
uc y
I t
a s
a nd
Ġl ear
Ġd own
Ġm o
el f
um p
all y
o b
Ġa d
Ġc all
is t
Ġk ne
Ġsc ared
Ġthing s
g e
it e
Ġc ame
Ġyou r
Ġli ved
b er
Ġw ill
Ġwa y
Ġf ind
Ġp ick
Ġg re
Ġg ard
ad y
Ġse e
ĠE very
Ġke pt
Ġgard en
Y ou
a u
i ld
n ed
Ġc ar
Ġc at
ow er
ĠJ ohn
ic ed
Ġfa st
Ġcall ed
k y
n ow
u e
Ġb r
Ġb ug
Ġm ore
is h
Ġbe ar
Ġnot iced
a ve
c hed
e ll
i ve
l o
Ġh o
Ġtoo k
Ġint o
o y
Ġh ug
Ġf o
Ġp re
Ġd ad
ri ght
Ġcl os
he re
Ġl aug
Ġof f
Ġtw o
' m
W hat
s elf
v ing
Ġh ouse
at e
Ġso on
J ohn
b b
v ent
Ġt a
Ġm uch
or t
ĠS o
Ġu nt
Ġr un
Ġwan t
Ġfl ower
Ġlot s
Ġkne w
Ġunt il
S o
u ck
Ġc ome
ar y
en ed
Ġbe st
Ġn ow
Ġplay ed
Ġsh ow
Ġan y
Ġj ump
Ġthan ked
b it
n ing
Ġa re
Ġwa r
Ġo ver
Ġloo k
ĠL ily
J ack
g ed
Ġw o
Ġwa t
Ġto w
im al
Ġy ear
Ġk itt
Ġan imal
es s
ur p
ab bit
Ġ if
a ne
f e
t h
Ġt ry
Ġto ld
Ġl ong
Ġhe ard
Ġm ag
Ġg ave
om my
Ġe ver
Ġbe a
ot her
Ġre m
Ġbo at
ĠA nd
Ġj ust
Ġfeel ing
L et
a x
g h
w l
ou gh
Ġd on
Ġwal king
Ġdid n
au se
Ġ C
T hat
t ing
u ll
v en
Ġt ea
Ġs ky
Ġs urp
in e
Ġb y
Ġb et
Ġp a
Ġg round
Ġin side
Ġe nd
Ġst ran
Ġr abbit
Ġpl ace
Ġcare ful
Ġbec ause
Ġkitt y
Ġsurp r
S uddenly
Y es
i z
Ġa r
Ġs l
Ġf ore
Ġl ea
Ġo p
en ny
im my
Ġne ed
Ġbo x
aug ht
Ġqu ick
W hen
i p
Ġt ur
Ġt ried
Ġa ma
re am
Ġth ree
Ġst o
ig h
ĠJ ill
Ġli ked
Ġch ild
us h
Ġwal ked
Ġro om
Ġad vent
Ġclos er
Ġwo nder
Ġmag ic
Ġama z
Ġ G
Ġ N
Ġ im
g er
i ed
j oy
m er
Ġt r
Ġa fter
Ġb ot
ĠH er
ut i
Ġk now
Ġpr in
Ġpr oud
Ġexpl ore
Ġlaug hed
a se
Ġb u
Ġm ouse
ĠThe n
ĠJ ane
Ġsh ould
ec t
Ġen joy
Ġlear ned
Ġpick ed
Ġanimal s
Ġbet ter
a h
b y
l ie
s ed
Ġb l
Ġf r
Ġc on
Ġp e
ar ah
Ġst ill
Ġre pl
ĠL ucy
ĠD ad
em ber
Ġbea uti
Ġfore st
Ġquick ly
Ġadvent ure
Ġrepl ied
Ġbeauti ful
M ummy
T h
f f
o e
r ong
Ġs ure
Ġf am
Ġl ady
ĠH is
Ġn ice
ĠB ob
Ġevery one
Ġgre at
Ġ ide
a p
a ch
f ore
p ort
t hing
Ġwa it
Ġl et
Ġha nd
Ġe y
Ġbe g
Ġloo king
ro om
Ġman y
Ġrem ember
Ġfam ily
Ġ You
c her
o ice
o lly
u ff
Ġw ind
Ġf in
Ġf ar
Ġf le
Ġf ish
Ġc ra
Ġc ry
Ġd in
Ġg ame
an k
Ġit s
ĠS am
Ġbe en
Ġbe fore
oo l
Ġse en
ĠW hen
Ġpo nd
Ġtea cher
Ġbot h
Ġide a
n er
Ġs ound
Ġhe re
Ġd is
Ġd an
ll ow
Ġst ay
ve s
Ġsh are
ill y
Ġbec ame
Ġhug ged
bb ed
Ġjump ed
Ġyear s
by e
Ġ ice
L ucy
d ay
e et
n g
t y
in y
Ġf ood
Ġc om
Ġd el
Ġg r
is ed
ĠS uddenly
Ġe ven
Ġst or
ĠI n
ĠJ oe
Ġsm ile
Ġne ar
ch ing
ĠA s
Ġpre t
Ġwonder ful
Ġbeg an
Ġfle w
N o
a c
e ep
in k
Ġb ed
Ġb ra
Ġh ard
Ġl ist
Ġp er
Ġm other
ĠS ue
Ġhapp ily
Ġwh y
Ġwh ile
Ġk ind
Ġdo g
Ġdo or
Ġwor k
Ġwor ld
dd ed
ag e
Ġv oice
Ġsw eet
Ġgra bbed
Ġgood bye
Ġstran ge
Ġsto pped
Ġey es
Ġ P
Ġ z
Ġ right
T im
i ous
Ġb all
Ġp ain
Ġd ro
Ġm at
Ġm or
Ġo wl
le s
Ġha ving
ĠS arah
Ġe at
Ġe ach
ir st
Ġu nder
ri ver
ri ved
Ġst e
oo k
ĠJ immy
ard s
Ġmom my
ran k
ĠF rom
Ġco l
Ġtoy s
Ġwat ched
Ġar rived
Ġsl ow
Ġop ened
Ġ ve
B ut
a is
Ġt re
Ġc he
Ġd if
Ġg l
Ġg um
Ġg ive
Ġu n
st er
Ġre al
ĠT om
ĠTim my
Ġno dded
Ġke ep
op le
Ġfo llow
Ġwar m
Ġmagic al
Ġamaz ing
Ġpe ople
ĠDad dy
ais y
H e
c t
i a
i ent
t on
u ri
u pp
x t
Ġb right
Ġf ill
Ġf ull
er ed
Ġg one
is hed
ll a
Ġbe ing
Ġu se
pp ing
Ġre l
fu lly
Ġhim self
Ġgo ing
ĠL et
Ġwor d
ĠE m
Ġother s
ĠEvery one
Ġta st
Ġsurpr ise
iz ed
Th ank
Ġ -
' ll
C an
M ommy
W h
h ar
i x
i on
Ġb it
Ġf ly
Ġl oud
Ġc le
Ġc uri
Ġp are
Ġp upp
The n
al k
Ġre ady
ĠA my
ĠA fter
ep end
nt s
Ġab le
Ġcare fully
Ġmo st
lo om
Ġrun ning
Ġenjoy ed
Ġdin ner
Ġbra ve
Ġpare nts
Ġpupp y
a k
a king
b le
Ġs le
Ġw here
Ġb ad
Ġto uch
re t
Ġh ur
ou ted
Ġl ess
Ġhe ar
Ġp at
Ġm um
at her
The y
Ġe m
ir t
am es
Ġsh outed
Ġne xt
Ġk id
ĠM ary
ĠM ax
ĠL ittle
Ġfa ce
Ġcat ch
Ġfast er
Ġho le
ĠN ow
uff y
Ġfill ed
" .
H is
f ect
h one
l ed
s h
Ġs ear
Ġb un
Ġl e
le ase
Ġth r
Ġbe h
Ġher self
ir c
ir ed
Ġu s
Ġn ame
Ġy ummy
Ġr ed
Ġr ace
Ġyou ng
Ġsh iny
ĠT o
ĠA l
Ġmom ent
ĠM ummy
Ġfa v
Ġget ting
Ġwal k
Ġsome one
Ġexpl or
Ġtow ards
fe re
Ġim port
Ġper fect
Ġdif fere
Ġcuri ous
Ġbun ny
Ġimport ant
D on
c ream
e st
f t
o on
s ent
t le
w here
z e
Ġt ired
Ġa c
Ġa m
Ġs or
Ġs ec
Ġs now
Ġwa ved
Ġb ar
Ġh igh
Ġf irst
Ġl ake
Ġc her
Ġp ar
Ġp ie
Ġm on
Ġm ust
Ġm ummy
Ġsa fe
ir y
Ġst one
Ġsh op
Ġre c
Ġk n
ĠM olly
Ġwor ry
ss ed
Ġno ise
Ġevery thing
ĠF rank
Ġen ough
Ġgra ss
Ġpre sent
Ġflower s
Ġcon t
Ġcom ing
Ġstor y
Ġslow ly
Ġsle ep
Ġless on
Ġthr ough
Ġsor ry
Ġpie ce
H er
L ily
S he
a ched
e en
f ly
l uffy
o se
r at
u ed
he s
Ġt ri
Ġa pp
Ġw ood
Ġw rong
in ued
Ġb ran
re ed
Ġf ix
Ġl a
Ġp ull
Ġd one
Ġm ess
Ġm aking
Ġg i
is it
Ġn ight
Ġst rong
Ġre ally
ter fly
Ġbut ton
Ġbut terfly
ic y
ĠM ia
Ġwor ked
Ġwor ried
ĠE lly
ĠE lla
Ġv isit
Ġco ld
and y
Ġdad dy
Ġtry ing
Ġsurpr ised
Ġlea ves
Ġremember ed
Ġcra b
Ġlist en
Ġgl ad
epend able
Ġdiffere nt
Ġmon ster
Ġcont inued
Ġpull ed
Ġ R
O h
b ed
e le
g ry
m ore
n a
n ie
u l
u al
Ġw on
Ġf ig
Ġf ree
er s
Ġl and
Ġc aught
Ġhe ad
Ġp enny
Ġd re
Ġm et
Ġm us
Ġg ather
Ġth ink
or d
or ite
ĠS p
Ġe ar
Ġbe l
Ġr a
Ġpl ant
Ġhapp en
Ġlo ve
Ġse em
Ġcl a
ĠD aisy
our s
Ġexpl ain
Ġlear n
Ġgre en
Ġany more
Ġprin t
ap e
Ġfin ished
Ġfar mer
Ġdel ic
Ġpret ty
Ġunder st
Ġste pped
Ġcol or
Ġtre es
Ġreal ized
Ġhur t
Ġkid s
Ġfav orite
Ġfig ure
A my
A fter
B ob
H ell
J immy
L ittle
M om
W e
W ow
b or
i o
i ke
i ch
k ay
o ke
s p
s y
t ur
z y
z ag
Ġa dd
Ġs ay
Ġs at
Ġs ide
in ky
Ġb ro
Ġto p
re n
Ġc ake
Ġc irc
Ġp ic
Ġp ro
Ġp rom
Ġp lease
ing ing
Ġd river
Ġo r
ar ing
at ure
en ise
ce ful
Ġu sed
ck s
ck et
ri or
ĠThe re
ig zag
al th
Ġsh irt
Ġre tur
ĠT h
fu sed
ĠA n
ĠA ll
ĠM om
ĠM ommy
Ġcl im
ro ss
ark et
Ġfa iry
Ġag reed
Ġal one
ĠW e
Ġpo cket
Ġen g
Ġbird s
Ġmo ve
Ġshow ed
Ġwar rior
Ġlong er
ĠC har
Ġpa ss
Ġstran ger
Ġchild ren
Ġtr uck
Ġadventure s
Ġcra wl
Ġdis c
Ġdan ce
Ġgr ow
Ġdro ve
Ġfollow ed
Wh y
Ġbeh ind
Ġac ross
Ġsec ret
Ġcher ry
ĠSp ot
Ġbel ong
Hell o
Ġ 3
A s
A t
A nd
M olly
T om
d er
h o
k en
l se
l and
o in
s c
s w
s ab
t ra
Ġs ch
Ġw el
Ġb lo
Ġc re
Ġc ool
Ġp ea
Ġp hone
Ġd ry
Ġd ark
Ġd eep
Ġm arket
Ġg ent
Ġo ran
is s
id d
et er
Ġe lse
Ġst u
ke y
ke ep
ig n
ĠJ ames
Ġsh ared
Ġre ached
Ġne igh
um mer
Ġfriend ly
Ġan sw
Ġsp ot
ĠB eep
ĠB inky
Ġfe ll
Ġis land
Ġfl o
ĠF in
ĠF luffy
Ġqu een
Ġsun ny
Ġsw im
Ġho pped
Ġta il
Ġlook s
Ġtow n
Ġop en
Ġneed ed
Ġprin ce
Ġbu ild
Ġfin ally
Ġball oon
Ġpain ter
Ġmat ch
Ġmor al
Ġmor ning
ĠEm ily
Ġtast ed
Ġcle an
Ġshop keep
rat ed
Ġwood s
Ġbran ch
Ġseem ed
Ġdelic ious
Ġpass port
sab el
Ġsch ool
Ġwel c
Ġshopkeep er
Ġ river
' re
D o
M ax
b e
b ar
c ing
e ed
i re
i et
i es
i able
k in
l a
l ing
m un
p ill
r ow
s o
u ally
Ġt ed
Ġs et
Ġs elf
Ġs ummer
in ed
Ġb ush
Ġh or
Ġh ide
Ġh ours
er pill
Ġwas n
Ġc ou
Ġc ut
Ġp us
Ġp ump
Ġm ush
Ġo w
Ġsa ck
Ġth in
et le
Ġbe lie
Ġbe etle
Ġy ard
Ġst re
ĠI sabel
Ġr ide
Ġwith out
Ġpl an
el y
Ġwe ar
Ġre lie
Ġwh ich
Ġan gry
Ġbig ger
Ġsp id
Ġsp oke
Ġsp eed
ĠB loom
ear ed
Ġlo g
Ġcl um
Ġcl oud
Ġch as
ust rated
us ie
us ual
ĠW hat
Åĵ I
ĠD enise
Ġpo in
Ġpo le
Ġbir th
âĤ¬â Ģ
Ġqu iet
Ġkne e
au l
Ġcat erpill
Ġbr ought
Ġbr ush
Ġfo x
Ġfo ot
Ġtow er
Ġtur tle
Ġtur key
Ġamaz ed
ĠG ary
Ġbl ack
Ġpret end
Ġve st
Ġun usual
Ġrel iable
Ġem bar
ĠAl ice
Ġexplor ing
Ġgather ed
Ġprom ised
alth y
Ġclim b
Ġeng ine
sc ape
Ġgent le
Ġted dy
Ġself ish
Ġpump kin
Ġmush room
Ġbelie ve
Ġbirth day
Ġcaterpill ar
Ġembar ra
Ġ O
J ust
Z igzag
a v
a st
a ur
b o
c ed
p ed
p er
u ne
Ġt ight
Ġt ell
Ġs k
Ġw om
Ġw et
in ing
Ġb ri
Ġh ar
Ġh an
Ġh oo
ou p
Ġf all
Ġf ro
Ġc ase
Ġp ow
Ġd ist
Ġd ream
Ġm ight
Ġg em
Ġg lo
Ġg ho
ar n
id ge
Ġsa f
an ce
an ic
ver ed
ĠS andy
Ġn aught
Ġso ck
Ġy ell
Ġy arn
Ġst ore
Ġst op
Ġst uck
Ġr ad
Ġwe ll
Ġsh ore
Ġwh ite
ĠT hat
Ġsp ent
ĠB en
ĠB ear
ĠB illy
one y
Ġlo st
Ġj oin
Ġcl ose
Ġal so
Ġch ip
Ġch alk
ran ny
ĠW h
Ġme et
em ent
os aur
Ġsw ing
and ing
Ġbr ing
Ġho pping
Ġclos ed
Ġlaug hing
vent ually
Ġany thing
Ġwat ch
ĠAnd y
Ġlea ve
ĠG ranny
Ġbu y
Ġbl ue
Ġfr ustrated
Ġcon fused
Th is
Ġwind ow
Ġbed room
Ġrel ax
Ġword s
ĠEm ma
Ġpat h
Ġpar ty
Ġrec ord
Ġtri p
Ġmus ic
Ġcla pped
Ġexplain ed
Ġunderst ood
Ġbro ken
Ġdisc o
idd le
mun k
Ġrelie ved
Ġclum sy
Ġwom an
Ġhoo p
Ġpow der
Ġglo ve
Ġgho st
Ġnaught y
Ġrad io
Ġchip munk
Ġ K
Ġ ent
H i
I n
S arah
b led
c il
g ot
g es
i ers
o nd
r s
r ay
s et
u ce
w e
w ard
Ġt all
Ġt iny
Ġt alk
Ġs n
Ġs qu
Ġs ight
Ġs ign
Ġw he
Ġw ish
Ġto ug
Ġh ot
it a
Ġl ily
Ġl ight
Ġl ate
Ġc ele
Ġp in
Ġp en
Ġp ir
Ġm oney
Ġm iddle
Ġg as
Ġo bed
Ġo kay
ar i
ay ak
ay be
at h
at er
Ġsa iled
ne y
ld iers
Ġin st
ĠS usie
ck ed
ri es
Ġso ft
Ġso ldiers
Ġr u
Ġr ake
ĠJ enny
Ġsh ining
Ġre sp
Ġfor got
ch anic
Ġhapp ened
Ġk ick
Ġk ayak
Ġex tra
!" .
Ġsp l
ĠB enny
ic op
ur ed
Ġhel icop
Ġnot hing
Ġhelp ed
Ġhelp ful
Ġdo ing
Ġdo es
Ġj our
Ġse a
Ġcl ay
Ġfe w
ag er
ĠW ith
ĠJack y
ĠD ependable
Ġme chanic
Ġmake s
pt y
Ġco in
Ġbr own
Ġbr other
Ġta king
Ġwat ching
Ġtea ch
Ġsl ide
Ġneed le
Ġim p
Ġhand s
Ġdin osaur
Ġsound s
ĠIn side
Ġlist ened
Ġz i
Ġz ip
Ġdro pped
Ġcol our
Ġfly ing
Ġhear t
Ġem pty
Ġsear ching
ĠTo gether
Ġpiece s
ul t
Ġmet al
Ġcolor ful
Ġretur ned
Ġoran ges
Ġstu dy
Ġflo at
Ġow n
Ġspid er
Ġembarra ssed
Ġtoug h
Ġcele b
Ġpen cil
Ġpir ate
Ġobed ient
Ġhelicop ter
Ġjour ney
Ġ '
Ġ our
Ġ Zigzag
C ome
D ad
E very
F rom
I f
L ook
M y
M um
M ary
S am
S ue
W here
a le
a ir
b ug
g le
g round
h ood
i ver
k s
l iver
s ist
t o
t ure
v ice
z or
z ard
he l
Ġt al
Ġa ir
Ġs uch
Ġs oup
Ġw is
Ġw ise
nd ma
ed al
in nie
Ġwa ll
Ġb ow
Ġb ag
Ġb us
Ġb ook
Ġto day
re ad
Ġh at
Ġf an
er t
Ġl it
Ġc our
Ġc ream
Ġp ack
Ġp our
Ġp ile
Ġp ower
Ġp edal
Ġd ri
Ġd aught
Ġd ependable
Ġm is
Ġm ind
Ġm uff
ar p
ar t
om ed
en ce
ne ver
an ny
im p
Ġha ir
or a
Ġe ager
Ġbe am
st ry
Ġst r
Ġst ra
Ġst ick
Ġst anding
ut e
Ġplay ful
Ġplay ground
ime s
Ġsh r
Ġsh arp
Ġre ce
um ber
ill age
Ġli ve
Ġli zard
Ġsp icy
Ġsp ray
Ġsp read
ra ce
ĠM rs
ind y
Ġhelp ing
ĠL ac
Ġat e
Ġj ob
Ġj oy
Ġse ll
Ġwould n
get able
Ġexcit ing
Ġexcit ement
Ġal ong
Ġno se
Ġsc re
Ġsad ly
Ġevery where
Ġpo l
Ġfl ame
Ġv ine
Ġv illage
Ġsmall er
Ġmo le
Ġmo ved
Ġad vice
bb le
Ġpa le
Ġpa stry
Ġplace s
Ġar m
Ġtur n
Ġtur ned
Ġsto ve
Ġwonder ed
ĠG race
Ġim ag
Ġtr ust
Ġfr idge
Ġlady bug
ap a
ac hel
ĠP aul
ĠP apa
Ġmat ter
Ġste al
Ġve getable
Ġbright ly
Ġle g
Ġle ft
Ġexplor ed
Ġbar n
Ġapp eared
Ġmess age
Ġra zor
Ġhappen s
Ġcirc le
Ġpic ture
ĠAn na
ĠChar lie
Ġcre ature
Ġpea ceful
Ġspot ted
Ġwelc ome
Ġhor se
Ġhar bor
Ġzi pping
Ġcour se
Ġdaught er
Ġmuff in
ĠLac y
Ġvegetable s
B e
B en
C har
E m
E lla
H ow
M ia
N ow
O f
S ure
W ell
a il
a pp
a ss
b all
c y
e er
e ad
f ie
f ort
g n
g ly
h lo
i ant
l ar
m ing
m or
n ic
o la
o gn
p hone
t en
u d
u el
w y
w ed
he ad
he art
Ġt id
Ġt aught
Ġt ele
Ġa head
Ġs il
Ġs uddenly
Ġs illy
Ġs na
Ġw r
Ġw ished
in ce
Ġwa nd
Ġb al
Ġb ite
Ġb uck
Ġb ath
re l
Ġh id
Ġh un
Ġh ill
Ġf uel
er ous
Ġl uck
Ġc ard
Ġc ast
Ġhe althy
Ġhe av
Ġp udd
Ġp ink
Ġd i
Ġd es
Ġd ea
Ġm in
Ġm er
Ġg en
Ġo ct
ll o
ll s
ll iant
Ġsa il
ne ss
le ss
le ton
Ġth re
Ġth ie
an s
ld ing
ĠS ally
on t
Ġe ventually
ir rel
Ġn ature
st ing
st al
ot h
Ġst ret
ke leton
ĠI Ã¢
Ġup set
ad ow
ĠJ ust
Ġwe ight
Ġsh ort
Ġfor get
Ġwh ale
âĤ¬ .
Ġas king
Ġk ite
Ġon ly
Ġon to
Ġan other
Ġli fe
Ġsp ark
Ġsp ike
ĠB ill
ra p
ĠM aisy
ĠM ike
Ġsomet imes
?" .
ĠE nd
Ġsc ar
Ġsc are
Ġsc ary
Åĵ Let
ĠD anny
Ġme adow
op us
if e
Ġco vered
Ġsun sh
Ġro ll
Ġro ad
Ġro cks
Ġsw am
Ġgra ceful
Ġmy ster
Ġad m
ge st
Ġgre w
ĠEvery where
Ġbug s
ĠSo on
Ġshow ing
Ġwo ke
Ġbea ch
Ġrem ind
iz e
Ġlea sh
Ġbox es
igh ted
ĠN ora
Ġprin ting
Ġenjoy ing
Ġfr ame
Ġfr ont
Ġwait ed
Ġcry stal
Ġsound ed
Ġdis app
Ġdan cing
Ġstay ed
Ġdel ighted
Ġstor ies
ac ed
Ġsweet heart
ĠP eter
Ġpain t
Ġeat ing
Ġtre at
Ġche st
ct ive
ĠLet Ã¢
Ġtast e
ble m
Ġpat ient
Ġpar ade
Ġstone s
Ġrec ogn
Ġkn ife
Ġfix ed
Ġla zy
Ġla wy
Ġgi ant
ĠR achel
Ġland scape
Ġdre ss
Ġear s
Ġcirc les
Ġpic nic
Ġpro blem
ĠTh is
ĠAn nie
ĠChar les
Ġbelong ed
Ġblo cks
iss a
Ġneigh b
Ġneigh bor
Ġansw er
Ġansw ered
Ġcou nt
Ġpus hed
Ġthin king
Ġstre et
Ġchas ing
Ġpoin ted
âĤ¬âĢ Ŀ
Ġfoot ball
ĠO liver
bo dy
Ġbri lliant
Ġhan ger
Ġfro g
Ġdist ance
Ġyell ow
ĠK ari
Ġsqu irrel
Ġgas ped
Ġresp ect
Ġimp ro
Ġcolour ful
Ġtal king
Ġwis hes
Ġfan cy
Ġshr imp
Ġscre amed
Ġpicture s
hlo e
lar issa
Ġtid y
Ġtele phone
Ġsil ver
Ġbuck et
Ġbath room
Ġcast le
Ġdea f
Ġgen erous
Ġoct opus
Ġthie f
ÅĵLet Ã¢
Ġsunsh ine
Ġlawy er
Ġ ind
F in
J ill
J ane
J enny
J oe
M aybe
O kay
R ita
b ur
b we
c le
c ient
d est
e e
e re
e at
e ver
e lly
f ic
f ra
g y
g in
i er
i pped
l oo
l ace
m e
m ent
m mer
n ot
o es
p eat
r ed
r ate
r uce
u able
u per
v ail
w ber
w ards
y ing
y ard
z ie
Ġt ie
Ġt able
Ġt rap
Ġa fra
Ġa vail
Ġs is
Ġs ne
Ġs inging
Ġs ince
Ġs uper
Ġw in
Ġw ing
Ġw ide
Ġw ine
Ġw ip
in ked
in ess
Ġb re
Ġb ree
Ġb loom
Ġh um
Ġh op
Ġh ive
Ġf it
Ġf ur
Ġf ence
er c
Ġl ater
Ġl umber
Ġl ying
Ġc or
Ġc ri
Ġc omet
Ġc ried
Ġc andy
Ġhe llo
Ġp et
Ġp ri
Ġm ar
Ġm il
Ġm ix
Ġg loom
Ġo ri
is ted
om as
en s
Ġsa me
ne t
Ġth ough
an gle
im ed
Ġha s
Ġha irc
Ġha mmer
Ġit ch
Ġin c
Ġin sist
Ġe as
Ġe scape
ce ss
Ġbe ans
Ġu r
Ġu gly
ck lace
Ġshe l
Ġy es
il bur
am ond
Ġr ain
Ġr are
ĠJ im
ĠJ oy
Ġwe althy
al uable
Ġsm ell
Ġsm elly
Ġsh y
Ġsh ut
Ġsh ook
Ġsh aring
Ġre f
Ġre ver
Ġre st
Ġre ind
Ġne st
Ġne cklace
Ġtime s
Ġfor th
Ġwh ist
um bled
Ġas h
ĠT ommy
ĠT illy
Ġan cient
Ġex erc
!" ,
Ġbo ss
ĠM el
ĠM ouse
ĠM innie
ĠL iz
Ġj ar
Ġcan not
Ġback yard
Ġexc la
Ġal ert
Ġold er
Ġfe et
Ġch ain
Ġno body
Ġagain st
Åĵ Yes
Åĵ Thank
Åĵ Can
Åĵ Hello
ĠD ave
Ġme ant
Ġke y
Ġfl ute
Ġv aluable
Ġco zy
Ġco bwe
Ġqu ite
our hood
Ġro ck
Ġint ere
ma id
Ġgra ndma
Ġlear nt
Ġlear ning
Ġmo dest
Ġway s
Ġbear s
Ġnow here
Ġjump ing
Jack y
Ġmag net
Ġrem ain
ĠC ome
ĠC indy
ĠC hloe
Ġar row
Ġfore ver
Ġtr ou
Ġtr ue
Ġbu bble
Ġbl inked
Ġpe e
Ġey e
Ġcry ing
Ġdan ced
ng th
Ġcom p
Ġdel ight
Ġnear by
Ġper m
Ġkind s
Ġche ered
Ġche wed
Ġdif fic
Ġcle ver
epend ent
Ġsear ch
Ġsear ched
ĠAl fie
Ġbar ber
Ġkn ob
Ġtri angle
Ġapp ro
Ġgi ving
Ġgi ven
Ġdre w
Ġplant s
Ġlove ly
Ġadd ing
Ġsay ing
ĠTh omas
Ġswim ming
Ġpus hing
Ġstre ngth
Ġcloud s
Ġchas ed
âĤ¬âĢ ľ
Ġquiet ly
Ġsaf er
ĠWh ile
Ġwindow s
Ġdisco ver
Ġsn ack
Ġwhe el
Ġinst ead
Ġspl as
Ġceleb rate
Ġpack ed
Ġstra wber
Ġrece ive
Ġpol ite
Ġarm s
Ġimag ined
fort able
Ġsna il
Ġbal an
Ġpudd le
Ġdi amond
Ġdes k
Ġmer maid
Ġthre w
Ġscar f
Ġmyster ious
Ġneighb ourhood
Ġind ependent
gin al
Ġafra id
Ġavail able
Ġsis ter
Ġsne e
Ġbree ze
Ġcor ner
Ġcri b
Ġmil k
Ġgloom y
Ġori ginal
Ġhairc ut
Ġreind eer
Ġboss y
ĠLiz zie
Ġexcla imed
Ġcobwe b
Ġintere sting
Ġdiffic ult
Ġ ig
Ġ icy
' d
A l
B illy
C larissa
F rank
F luffy
H el
J im
L ola
P lease
P eter
P aul
Q u
T o
a w
b ling
c om
c age
c les
c hes
d uc
g ing
g ust
i qu
i ble
l in
l ved
n ted
o or
o oth
p ul
r ot
s ing
s on
s el
s ured
t une
u ss
v ous
v ious
w s
w een
x e
z ed
z er
he never
he lls
Ġa xe
Ġs it
Ġs ing
Ġs itt
Ġs ong
Ġs uc
Ġw ore
Ġthe se
Ġwa g
Ġb are
Ġb icy
re s
re peat
Ġh ig
ou nt
Ġf ing
Ġf ake
Ġf ear
Ġf ie
Ġf ine
er able
er gy
er vous
Ġl end
Ġl un
Ġl ect
Ġc a
Ġc ur
Ġhe al
Ġp le
Ġp ot
Ġp ill
Ġp ra
Ġp urp
Ġd ust
Ġd em
Ġd uck
Ġd rank
Ġd irt
Ġm ay
Ġm ea
Ġm iss
Ġm ud
Ġg ar
Ġg ig
Ġg un
Ġg ran
Ġg ate
Ġg ames
Ġo ce
Ġo as
is sed
Ġsa nd
Ġsa ng
Ġsa uce
Ġth irst
Ġha iry
or n
ĠS keleton
Ġe sp
ir d
ĠH ow
Ġn ur
Ġn ervous
ow ed
Ġy et
Ġof ten
il ing
Ġst umbled
am a
ĠI f
Ġr is
Ġr ound
Ġr inging
Ġr aced
ve al
ig ent
ig hed
Ġpl ate
Ġhad n
ĠJ une
Ġwe ep
Ġwe ak
Ġsm ooth
Ġsm iling
Ġsh one
Ġsh oes
Ġre fused
Ġre veal
Ġfor ward
Ġfor tune
um bling
Ġfri ght
Ġas k
Ġk issed
Ġon ce
ug ged
Ġan t
ec ted
Ġli p
Ġbig gest
Ġsp ace
Ġsp oon
ĠB ruce
ĠA t
ur ous
ur bed
Ġnot e
ĠL ea
Ġat t
Ġat tra
Ġdo lly
Ġse as
Ġcan Ã¢
ro duc
Ġfa uc
ss el
ss room
Ġag ree
Ġal right
Ġis n
ag ed
ie st
Ġch ore
Ġch oice
Ġch air
Ġno sy
Ġexcited ly
Ġthem sel
Ġman aged
Ġfun ny
ĠW ilbur
Åĵ It
Åĵ You
Åĵ That
Åĵ No
Ġevery day
ĠD on
Ġme an
Ġme mor
Ġpo or
Ġpo pul
Ġfl uffy
eci ally
ĠF irst
Ġv io
Ġen vious
Ġen ergy
Ġthan k
Ġthan ks
Ġbec ome
Ġqu it
our ite
Ġwhat ever
Ġint ell
Ġint roduc
Ġbird cage
Ġsw ord
Ġsw inging
Ġtw ist
Ġgra b
as k
Ġmo ving
Ġad ult
Ġyour self
Ġwill ing
Ġfind ing
Ġsee k
ĠEvery thing
Ġcar rot
ĠJohn son
Ġfast est
Ġho lding
Ġhug e
Ġfo ld
Ġpre p
Ġlaug h
Ġoff er
Ġoff ered
ate ful
So on
Ġany where
Ġwar ned
Ġkitt ens
Ġdon Ã¢
Ġdidn Ã¢
ĠC an
Ġbet ween
Ġpa per
Ġlea f
Ġneed s
Ġadvent urous
ĠN o
ger ous
Ġbot t
Ġshould er
Ġbl ank
Ġfr own
Ġhand ed
Ġbeg in
Ġfar m
Ġdis gust
Ġgr ateful
Ġstor m
Ġhard er
Ġsweet s
Ġz o
Ġz igzag
Ġmat ching
Ġve ssel
Ġche er
Ġun iqu
Ġfollow ing
ĠTo dd
ĠTo day
Ġfav ourite
Ġsec ond
Ġbar ked
Ġcher ries
Ġsleep ing
Ġbran ches
Ġla st
Ġstrong er
Ġbutton s
ĠR ita
Ġwon Ã¢
Ġfree zer
Ġland ed
Ġdre ssed
Ġmus cles
Ġra ven
Ġcla ssroom
Ġcolor s
Ġbro ke
Ġpro ve
Ġretur n
Ġcrawl ed
Ġcrawl ing
Ġdisc uss
Ġgrow ing
Ġblo cked
Ġoran ge
Ġflo or
ĠFin ally
Ġbuild ing
Ġclean ing
Ġwelc omed
Ġlog s
ÅĵI Ã¢
Ġpoin ting
Ġtight ly
Ġsk ip
Ġsk ipped
Ġbri ck
Ġdist urbed
Ġsaf ely
Ġyell ed
ĠWh y
Ġent ire
Ġwhe never
Ġspl it
Dad dy
Ġbow ed
Ġbus hes
Ġdri ve
Ġmis erable
Ġstr ug
Ġstick s
Ġturn s
Char lie
Em ily
Ġwr ite
Ġhun gry
Ġheav y
Ġstret ch
Ġspark ly
Ġadm ire
Ġremind ed
Ġdisapp eared
Ġrecogn ized
Ġneighbor s
Ġcount ry
Fin ally
Ġwing s
Ġbre ak
Ġhum ble
Ġhop ed
Ġpri ze
Ġmar ried
Ġinsist ing
Ġur ged
Ġrever sing
Ġexerc ise
Ġpee ked
Ġperm it
Ġappro ached
Ġsplas h
Ġsnee ze
Ġig loo
Hel p
Qu ick
Ġsitt ing
Ġsuc cess
Ġbare ly
Ġbicy cle
Ġhig her
Ġfie ld
Ġlun ch
Ġlect ure
Ġpra ct
Ġpurp le
Ġgar age
Ġoce an
Ġoas is
Ġthirst y
Ġesp ecially
Ġnur se
Ġseas hells
Ġfauc et
Ġthemsel ves
Ġpopul ar
Ġvio lin
Ġintell igent
Ġintroduc ed
Ġblank et
Ġdisgust ing
Ġuniqu e
Ġ Ġ
Ġ ed
Ġ ri
Ġ ĠĊ
Ġ On
Ġ ign
Ġ Quick
" ,
' .
? !
A re
C indy
D enise
G ra
G ood
J oy
J ames
J une
K ate
K ari
L ater
M e
M innie
M ama
P oor
R em
S ally
S usie
T ommy
T illy
Y ay
a ving
a ven
b j
b ow
c ane
d ed
e se
e xt
f it
f id
f ound
g an
g um
g led
g ling
h h
h i
h ip
i ved
i our
j ured
l en
l au
m ed
m ined
n ce
o ld
p it
p ar
p ted
p ack
p ool
p ected
r u
r or
s it
t w
t or
t ain
t ion
u ly
u bb
w er
w alk
x ible
Ġt ick
Ġt ip
Ġt est
Ġt ugged
Ġa dded
Ġa ct
Ġa we
Ġs en
Ġs ent
Ġs ug
Ġs way
Ġs ur
Ġs ick
Ġs udden
Ġs ip
Ġs keleton
Ġs ighed
Ġw ra
Ġw ild
ed s
Ġwa ves
Ġb le
Ġb ent
Ġb ab
Ġb ought
Ġto uc
Ġto mor
Ġh os
Ġh idd
it y
it ely
Ġf at
Ġf ir
Ġf ight
Ġf ather
Ġf ire
Ġl ed
Ġl id
Ġl ad
Ġl one
Ġc al
Ġc ave
Ġc ook
Ġc row
Ġc ert
Ġhe ld
Ġhe sit
Ġp ay
Ġp ush
Ġd r
Ġd ig
Ġd ra
Ġd iz
Ġd eter
Ġm out
Ġm ug
Ġm ist
Ġm ild
Ġm ac
Ġm aybe
Ġm ount
Ġm ask
Ġg u
Ġg ust
Ġg ue
Ġo k
Ġo bj
is es
id es
om ing
at ed
at ly
at ive
at ely
ll ed
en ry
en ge
Ġsa ve
Ġsa ving
The re
The ir
le ep
le ctive
Ġth ose
an ged
or k
or m
or ed
or able
Ġit Ã¢
Ġit self
Ġin v
Ġin ter
Ġin jured
ĠS ure
on s
Ġbe ll
Ġbe side
Ġbe llow
Ġn ap
Ġn umber
ow ing
ri cane
Ġshe ll
Ġshe lls
Ġso lved
st s
ĠHe re
il t
Ġst ir
Ġst ood
Ġst ep
Ġst air
ut es
ut ching
oo se
Ġr id
Ġr at
Ġr ot
Ġr us
Ġr ise
Ġday s
Ġpl aced
Ġwe aring
Ġwe alth
Ġwe ird
her o
Ġsm oke
Ġsh out
Ġsh aking
Ġsh ape
Ġre ad
Ġre ward
Ġre ass
Ġne are
Ġne tw
Ġne atly
se s
Ġhapp iness
Ġwh irl
Ġas leep
all enge
ter n
Ġk iss
Ġon ion
Ġon ward
Ġli ving
ake s
ic tor
ra ge
ĠA re
Ġall owed
Ġfriends hip
Ġgo al
Ġhelp less
ĠL ook
ĠL ul
ĠL ola
Ġlo ves
Ġj e
Ġj ug
Ġse w
Ġse par
Ġse eds
Ġwor king
Ġwor th
Ġcl utching
Ġback ed
ĠE ach
ĠE ventually
ss ment
Ġstar t
Ġstar ing
Ġstar ting
ag reed
pl ay
pl ace
Ġch ir
Ġch ase
Ġch ance
Ġch ubb
Ġch oose
Ġch allenge
Ġwho le
ĠW ould
ĠW ill
ĠW ho
ĠW henever
Åĵ Oh
Åĵ Why
Åĵ Do
Åĵ Look
Åĵ hi
qu ake
Ġcare less
ĠF o
Ġpr ot
Ġv ide
Ġv ictor
Ġco at
Ġco ver
Ġwater s
Ġnew s
Ġnew found
Ġsun set
Ġthought ful
os ity
Ġro b
Ġtw irl
Ġtw ink
Ġtw isted
ant ly
Ġcouldn Ã¢
as ure
and ed
ump y
Ġad orable
ist en
ber s
ber ry
Ġpick ing
Ġgre et
Ġcar s
Ġbr idge
ive s
Ġho ot
Ġpre ssed
Ġclos et
bb les
bb orn
bb ons
Ġta ken
Ġwant s
Ġcome s
Ġany one
Ġwar ning
th quake
ĠC larissa
ĠC aw
Ġpa ws
Ġend ing
Ġsl ides
Ġlea ving
Ġquick er
Ġsto len
Ġamaz ement
ĠG ood
ĠN ext
Ġtr uly
Ġbot tle
Ġprin ted
Ġbu ry
Ġbu ilt
ect s
Ġcon fid
Ġpe bble
Ġpe bbles
Ġwait ing
uff ed
Ġfin ish
Ġfle xible
Ġdis agreed
Ġdis play
Ġdan gerous
Ġcom fortable
Ġgr oup
Ġgr umpy
ĠIn st
ac tion
Ġper sist
Ġkind ness
Ġpain ted
ĠJimmy Ã¢
Ġche ese
Ġun lo
Ġun com
Ġreal ize
Ġwarm ly
He y
Ġbright er
Ġtast y
Wh o
Wh ile
ion s
Ġloud ly
Ġcle aring
Ġcuri osity
Ġsle pt
Ġhur ry
Ġhur ricane
Ġpat tern
Ġle ad
Ġbeh av
Ġus ing
Ġus ual
Ġdiffere nce
Ġcurious ly
Ġac ce
Ġkn own
Ġkn ives
rat ing
Ġapp lau
Ġfix ing
Ġmess y
ĠR abbit
Ġfree ze
Ġear thquake
Ġra ked
Ġexplain ing
Ġdelic ate
Ġunderst and
Ġunderst anding
Ġhurt s
Ġside walk
Ġprom ise
Ġor gan
ĠTh ank
Ġclim bed
Ġstranger s
oin ted
Ġblo ss
Ġcre ative
Ġpea ce
Ġstu bborn
Ġballoon s
Ġset tle
Ġcou nted
Ġcou rage
Ġcut e
Ġow ner
Ġspid ers
Ġspeed ing
Ġpretend ed
Ġclimb ing
Ġembarra ssment
ĠO K
bo x
Ġsk irt
Ġhar sh
Ġhan g
Ġfall ing
Ġdream s
Ġmeet ing
Ġswing s
Ġdisco very
Ġdisco vered
ĠK ate
Ġent er
Ġent ered
Ġsqu ee
Ġru bbed
Ġkick ed
Ġkick ing
Ġdoes n
Every one
Ġbus y
Ġpower ful
Ġdri ving
Ġmis sed
Ġeager ly
Ġstr ing
Ġstra ight
Ġrece ived
Ġlive ly
Ġspray ed
Ġsell ing
Ġpol itely
Ġmuffin s
Char les
Em ma
ass ion
Ġhid ing
Ġhun g
Ġheav ier
Ġmin ute
Ġmin utes
Ġshort s
Ġspark le
Ġroll ed
gest ed
Ġcrystal s
Ġdisapp ointed
Ġrecogn ize
Ġstreet s
Ġimpro ve
Ġimpro ved
Ġsuper hero
Ġwip e
Ġwip ed
Ġfur ry
Ġfur ther
Ġmix ed
Ġinc red
Ġeas y
Ġeas ier
Ġshel f
Ġshel ves
Ġrain bow
Ġref res
Ġref lective
Ġwhist le
Ġwhist ling
Ġremain ed
Ġtrou ble
Ġtrou bled
Ġbubble gum
Ġcomp assion
Ġwindows ill
Ġdiscover ing
Ġsnack s
Ġstrawber ry
Ġstrawber ries
Ġbalan cing
Ġbalan ced
Al ice
To gether
Ġwag ged
Ġfing ers
Ġca uti
Ġcur tain
Ġdem anded
Ġmea sured
Ġgig gled
Ġgran ted
Ġris ks
Ġreveal ed
Ġfright ened
ĠLea ve
Ġatt ic
Ġattra ctive
Ġagree ment
Ġchore s
ÅĵThat Ã¢
Ġmemor ies
Ġthank ful
Ġtwist y
Ġadult s
Ġprep are
Ġbott om
Ġzo omed
Ġstrug gling
Ġsuccess ful
Ġed ge
Ġri bbons
Gra ndma
Me ow
Rem ember
pit al
ru pt
Ġsen se
Ġsug gested
Ġwra pped
Ġble w
Ġbab y
Ġtouc hed
Ġtomor row
Ġhos pital
Ġhidd en
Ġfir m
Ġlad der
Ġlone ly
Ġcook ies
Ġcert ain
Ġhesit ant
Ġdra wer
Ġdiz zy
Ġdeter mined
Ġmout h
Ġmist akes
Ġmount ain
Ġgue sts
Ġobj ects
Ġinter rupt
Ġbellow ed
Ġstair s
Ġrus hed
Ġneare r
Ġnetw ork
Ġwhirl pool
ĠLul u
Ġchubb y
Ġvictor ious
Ġpersist ent
Ġuncom fortable
Ġbehav iour
Ġorgan ized
Ġ 8
Ġ U
Ġ x
Ġ ing
! '
' ve
' ."
' ?"
A h
A n
B y
B ug
B ill
B enny
B eep
B inky
B less
B ruce
C ream
C hloe
C aw
D es
D aisy
D anny
E x
E lly
E ach
E ventually
F un
G l
G o
G et
H oney
H enry
I s
I ce
I sabel
L ea
L uck
M or
M el
M ine
M rs
N ora
O k
O ut
O uch
O wl
O liver
P ut
P ick
P ale
R abbit
R achel
S l
S omet
S andy
S ince
S ee
S hh
T ake
W at
W oo
W ith
W ould
W ilbur
W henever
Y uck
a it
a ved
a ily
a pped
a ff
b r
b el
b ly
b ank
c c
c u
c at
c ut
c ted
c al
c hen
c ting
d e
d ent
d ro
d ge
d ered
e ing
e ster
e ath
f ree
f ight
f ant
f ting
f ast
f action
g s
g u
g re
g ri
g ent
g ue
g loo
h oo
h hed
h ant
h aving
i ar
i en
i vered
i ence
i ately
i bly
j am
j ust
l f
l er
l ve
l ight
l ined
l ud
m et
m ot
m ade
m ess
m other
m ble
m arket
m iest
m bers
n oon
n fort
o ve
o hed
o pped
o cked
o lved
p ing
p et
p ri
p end
p ite
p ered
p air
p art
p ens
p berry
p hant
r ou
r ing
r am
r un
r um
r ct
r ustrated
s id
s se
s ily
s ure
t e
t ime
t ough
t ak
t iest
t antly
u icy
v in
v ide
v ab
w o
w el
w are
w ell
w ich
w ely
w ait
x ious
x pected
y s
y ou
y ear
z en
he llo
Ġt in
Ġt er
Ġt ummy
Ġt em
Ġt as
Ġt eet
Ġt umbling
Ġa ch
Ġa rom
Ġa hhed
Ġa part
Ġa wely
Ġs ir
Ġs end
Ġs us
Ġs our
Ġs upp
Ġs imp
Ġs ize
Ġw ow
Ġw ig
Ġw ound
Ġw ire
Ġw rap
nd or
nd Ã¢
nd mother
in es
in ary
in osaur
in ctive
in ated
Ġwa ke
Ġwa ve
Ġwa dd
Ġwa ist
Ġb en
Ġb ur
Ġb ase
Ġb ike
Ġb orn
Ġb ask
Ġb ored
Ġb aff
Ġto re
Ġto es
Ġto ast
re nt
re ady
re ase
re sh
re ssed
Ġh it
Ġh ut
Ġh our
ou nted
it s
it ed
it ing
it en
it ion
it ual
it ud
it chen
Ġf il
Ġf ut
Ġf ought
Ġf ive
Ġf ool
Ġf resh
er y
er at
Ġwas h
Ġl ay
Ġl an
Ġl im
Ġl itt
Ġl ine
Ġl ap
Ġl ined
Ġc oo
Ġc el
Ġc udd
Ġc ards
Ġc ape
Ġc ries
Ġc rou
Ġhe aven
Ġp or
Ġp oo
Ġp ur
Ġp ort
ing s
ing ly
Ġd ir
Ġd ot
Ġd ug
Ġd ear
Ġd ive
Ġd ull
Ġd ied
Ġd aisy
Ġd aring
Ġd eer
Ġd aily
Ġm en
Ġm ir
Ġm ad
Ġm es
Ġm elt
Ġm udd
Ġm ap
Ġm ach
Ġm ail
Ġm ass
Ġg or
Ġg on
Ġg ut
Ġg all
Ġg if
Ġo il
Ġo pp
Ġo ak
Ġo cc
Ġo ohed
ar ily
is ing
is ions
is faction
id ly
id ers
om s
om ped
at ing
at ched
at ened
at ient
at ion
at itud
ll way
ll ip
ll ect
ne cted
ne xpected
le phant
le te
Ġth ri
Ġth ous
Ġth ird
an y
an ed
an ge
an gerous
im mer
im med
Ġha bit
Ġha lf
Ġha llway
or s
or king
or ant
et y
et ter
Ġin ve
Ġin fant
ĠS ay
ĠS ig
ĠS omet
ĠS har
ĠS ummer
ĠS ee
on st
on se
Ġe ma
Ġe mer
Ġe ff
Ġe lephant
ce s
Ġbe e
Ġbe ep
Ġbe lly
Ġbe ating
ir ing
ĠH i
ĠH ur
ĠH ave
ĠH enry
Ġu nexpected
Ġn ic
Ġn ames
Ġn ast
Ġn orm
ow s
ri ble
Ġshe et
Ġshe Ã¢
Ġso ar
Ġso il
Ġso ak
Ġso aring
Ġso lve
st ig
st op
st orm
Ġy el
Ġy um
Ġy ester
ĠHe Once
ot e
ot hing
ot hes
il s
il ure
il ty
il iar
Ġst are
Ġst ro
Ġst uffed
Ġst omped
ut y
ut ter
am pered
ĠI gloo
Ġr ing
Ġr um
Ġr ust
Ġr as
Ġr ap
Ġr aking
Ġr ather
Ġr iddle
Ġr umbled
Ġr umbling
Ġr itual
ĠĊ Ġ
Ġup s
Ġup side
Ġyou Ã¢
itt ed
itt en
itt ered
ent ured
ad ed
Ġwe Ã¢
Ġwe igh
Ġwe ighed
al s
al ous
Ġplay time
Ġsh ake
Ġsh ade
Ġsh ave
Ġsh ine
Ġsh ivered
Ġre un
Ġre qu
Ġre ach
Ġre action
Ġre pair
Ġne cess
Ġfor wards
un k
un ately
ch ase
ch anged
Ġwh iten
Ġas sured
Ġk itchen
ĠT V
ĠT ake
ĠT ry
ĠT ear
ĠT wo
Ġon wards
Ġgirl Ã¢
Ġan gri
Ġan xious
Ġex per
Ġex isted
Ġex pected
Ġex pens
Ġex changed
ec ause
Ġli fting
Ġwere n
Ġbo om
Ġbo dy
Ġbo ndÃ¢
Ġsp in
Ġsp end
Ġsp un
Ġsp ic
Ġsp ear
Ġsp ice
Ġsp ea
Ġsp ell
Ġsp ine
Ġsp ied
Ġsp ring
ĠB y
ĠB oth
ĠB eing
ĠB etter
ĠB ecause
Ġout ing
Ġout fit
Ġout run
ic ing
ic ate
round ing
ĠA rct
Ġmom s
ur ried
ur ingly
ĠIt s
ĠIt Ã¢
ĠM r
ĠM y
ĠM ay
ĠM um
ĠM aybe
ĠM ama
Ġhel met
ear ing
Ġgo es
Ġhelp s
ĠL ater
ĠL isten
Ġlo cal
Ġlo llip
Ġdo ct
Ġj am
Ġj uicy
?" ,
Ġse at
Ġse wed
Ġwor ries
Ġcl ap
Ġcl oth
Ġcl othes
Ġback wards
Ġback pack
ĠE ven
Ġfa ct
Ġfa sh
Ġfa sc
Ġfa cing
Ġfa ced
Ġfa ilure
ss ions
Ġal ive
Ġal ready
Ġfe ather
ag s
ie w
ie ve
ie vab
Ġget s
pl ished
Ġch ill
Ġch op
Ġch uck
Ġch illy
Ġch ose
Ġch anged
Ġch opped
Ġch ange
Ġno ises
