{
 "1": "Ā",
 "2": "ā",
 "3": "Ă",
 "4": "ă",
 "5": "Ą",
 "6": "ą",
 "7": "Ć",
 "8": "ć",
 "9": "Ĉ",
 "10": "ĉ",
 "11": "Ċ",
 "12": "ċ",
 "13": "Č",
 "14": "č",
 "15": "Ď",
 "16": "ď",
 "17": "Đ",
 "18": "đ",
 "19": "Ē",
 "20": "ē",
 "21": "Ĕ",
 "22": "ĕ",
 "23": "Ė",
 "24": "ė",
 "25": "Ę",
 "26": "ę",
 "27": "Ě",
 "28": "ě",
 "29": "Ĝ",
 "30": "ĝ",
 "31": "Ğ",
 "32": "ğ",
 "33": "Ġ",
 "34": "!",
 "35": "\"",
 "36": "#",
 "37": "$",
 "38": "%",
 "39": "&",
 "40": "'",
 "41": "(",
 "42": ")",
 "43": "*",
 "44": "+",
 "45": ",",
 "46": "-",
 "47": ".",
 "48": "/",
 "49": "0",
 "50": "1",
 "51": "2",
 "52": "3",
 "53": "4",
 "54": "5",
 "55": "6",
 "56": "7",
 "57": "8",
 "58": "9",
 "59": ":",
 "60": ";",
 "61": "<",
 "62": "=",
 "63": ">",
 "64": "?",
 "65": "@",
 "66": "A",
 "67": "B",
 "68": "C",
 "69": "D",
 "70": "E",
 "71": "F",
 "72": "G",
 "73": "H",
 "74": "I",
 "75": "J",
 "76": "K",
 "77": "L",
 "78": "M",
 "79": "N",
 "80": "O",
 "81": "P",
 "82": "Q",
 "83": "R",
 "84": "S",
 "85": "T",
 "86": "U",
 "87": "V",
 "88": "W",
 "89": "X",
 "90": "Y",
 "91": "Z",
 "92": "[",
 "93": "\\",
 "94": "]",
 "95": "^",
 "96": "_",
 "97": "`",
 "98": "a",
 "99": "b",
 "100": "c",
 "101": "d",
 "102": "e",
 "103": "f",
 "104": "g",
 "105": "h",
 "106": "i",
 "107": "j",
 "108": "k",
 "109": "l",
 "110": "m",
 "111": "n",
 "112": "o",
 "113": "p",
 "114": "q",
 "115": "r",
 "116": "s",
 "117": "t",
 "118": "u",
 "119": "v",
 "120": "w",
 "121": "x",
 "122": "y",
 "123": "z",
 "124": "{",
 "125": "|",
 "126": "}",
 "127": "~",
 "128": "ġ",
 "129": "Ģ",
 "130": "ģ",
 "131": "Ĥ",
 "132": "ĥ",
 "133": "Ħ",
 "134": "ħ",
 "135": "Ĩ",
 "136": "ĩ",
 "137": "Ī",
 "138": "ī",
 "139": "Ĭ",
 "140": "ĭ",
 "141": "Į",
 "142": "į",
 "143": "İ",
 "144": "ı",
 "145": "Ĳ",
 "146": "ĳ",
 "147": "Ĵ",
 "148": "ĵ",
 "149": "Ķ",
 "150": "ķ",
 "151": "ĸ",
 "152": "Ĺ",
 "153": "ĺ",
 "154": "Ļ",
 "155": "ļ",
 "156": "Ľ",
 "157": "ľ",
 "158": "Ŀ",
 "159": "ŀ",
 "160": "Ł",
 "161": "ł",
 "162": "¡",
 "163": "¢",
 "164": "£",
 "165": "¤",
 "166": "¥",
 "167": "¦",
 "168": "§",
 "169": "¨",
 "170": "©",
 "171": "ª",
 "172": "«",
 "173": "¬",
 "174": "Ń",
 "175": "®",
 "176": "¯",
 "177": "°",
 "178": "±",
 "179": "²",
 "180": "³",
 "181": "´",
 "182": "µ",
 "183": "¶",
 "184": "·",
 "185": "¸",
 "186": "¹",
 "187": "º",
 "188": "»",
 "189": "¼",
 "190": "½",
 "191": "¾",
 "192": "¿",
 "193": "À",
 "194": "Á",
 "195": "Â",
 "196": "Ã",
 "197": "Ä",
 "198": "Å",
 "199": "Æ",
 "200": "Ç",
 "201": "È",
 "202": "É",
 "203": "Ê",
 "204": "Ë",
 "205": "Ì",
 "206": "Í",
 "207": "Î",
 "208": "Ï",
 "209": "Ð",
 "210": "Ñ",
 "211": "Ò",
 "212": "Ó",
 "213": "Ô",
 "214": "Õ",
 "215": "Ö",
 "216": "×",
 "217": "Ø",
 "218": "Ù",
 "219": "Ú",
 "220": "Û",
 "221": "Ü",
 "222": "Ý",
 "223": "Þ",
 "224": "ß",
 "225": "à",
 "226": "á",
 "227": "â",
 "228": "ã",
 "229": "ä",
 "230": "å",
 "231": "æ",
 "232": "ç",
 "233": "è",
 "234": "é",
 "235": "ê",
 "236": "ë",
 "237": "ì",
 "238": "í",
 "239": "î",
 "240": "ï",
 "241": "ð",
 "242": "ñ",
 "243": "ò",
 "244": "ó",
 "245": "ô",
 "246": "õ",
 "247": "ö",
 "248": "÷",
 "249": "ø",
 "250": "ù",
 "251": "ú",
 "252": "û",
 "253": "ü",
 "254": "ý",
 "255": "þ",
 "256": "ÿ",
 "257": "he",
 "258": "Ġt",
 "259": "Ġa",
 "260": "Ġs",
 "261": "Ġw",
 "262": "Ġthe",
 "263": "nd",
 "264": "ed",
 "265": "in",
 "266": "Ġand",
 "267": "Ġwa",
 "268": "Ġb",
 "269": "Ġto",
 "270": "re",
 "271": "Ġh",
 "272": "ou",
 "273": "it",
 "274": "Ġf",
 "275": "er",
 "276": "Ġwas",
 "277": "Ġl",
 "278": "Ġc",
 "279": "Ġhe",
 "280": "Ġp",
 "281": "ing",
 "282": "Ġd",
 "283": "Ġm",
 "284": "Ġg",
 "285": "Ġo",
 "286": "ar",
 "287": "is",
 "288": "id",
 "289": "ay",
 "290": "om",
 "291": "at",
 "292": "ll",
 "293": "en",
 "294": "Ġsa",
 "295": "ne",
 "296": "The",
 "297": "le",
 "298": "Ġth",
 "299": "an",
 "300": "im",
 "301": "Ġha",
 "302": "or",
 "303": "Ġit",
 "304": "et",
 "305": "ver",
 "306": "ld",
 "307": "Ġin",
 "308": "ĠS",
 "309": "on",
 "310": "Ġe",
 "311": "ce",
 "312": "Ġbe",
 "313": "Ġher",
 "314": "ir",
 "315": "Ġ\"",
 "316": "ĠH",
 "317": "Ġsaid",
 "318": "Ġu",
 "319": "Ġn",
 "320": "ck",
 "321": "ow",
 "322": "ri",
 "323": "ĠThe",
 "324": "Ġshe",
 "325": "Ġso",
 "326": "st",
 "327": "Ġy",
 "328": "ĠHe",
 "329": "ot",
 "330": "Ġof",
 "331": "il",
 "332": "Ġst",
 "333": "ut",
 "334": "ke",
 "335": "am",
 "336": "ked",
 "337": "oo",
 "338": "pp",
 "339": "ĠI",
 "340": "Ġr",
 "341": "ĠShe",
 "342": "very",
 "343": "ve",
 "344": "Ġthat",
 "345": "ig",
 "346": "ĠĊ",
 "347": "ith",
 "348": "Ġhis",
 "349": "Ġup",
 "350": "Ġday",
 "351": "Ġwith",
 "352": "Ġyou",
 "353": "Ġpl",
 "354": "itt",
 "355": "ould",
 "356": "el",
 "357": "ted",
 "358": "ent",
 "359": "ad",
 "360": "Ġhad",
 "361": "ĠJ",
 "362": "ound",
 "363": "Ġwe",
 "364": "al",
 "365": "ittle",
 "366": "her",
 "367": "'s",
 "368": "Ġsm",
 "369": "Ġplay",
 "370": "ack",
 "371": "end",
 "372": "Ġthey",
 "373": "Ġthere",
 "374": "ime",
 "375": "ly",
 "376": "Ġsh",
 "377": "Ġlittle",
 "378": "Ġre",
 "379": "out",
 "380": "Ġne",
 "381": "Ġtime",
 "382": "Ġfor",
 "383": "un",
 "384": "ch",
 "385": "se",
 "386": "Ġhapp",
 "387": "ome",
 "388": "Ġwh",
 "389": "my",
 "390": "ht",
 "391": "um",
 "392": "Ĥ¬",
 "393": "Ã¢",
 "394": "âĤ¬",
 "395": "Ġfri",
 "396": "Ġas",
 "397": "Ġvery",
 "398": "Ġfriend",
 "399": "all",
 "400": "ter",
 "401": "On",
 "402": "Ġk",
 "403": "ved",
 "404": "ĠT",
 "405": "Ġon",
 "406": "irl",
 "407": "Once",
 "408": "ug",
 "409": "ill",
 "410": "Ġgirl",
 "411": "Ġan",
 "412": "es",
 "413": "Ġex",
 "414": "!\"",
 "415": "'t",
 "416": "ec",
 "417": "Ġbut",
 "418": "Ġloo",
 "419": ".\"",
 "420": "Ġli",
 "421": "Ġwere",
 "422": "Ġwan",
 "423": "Ġbo",
 "424": "Ġhappy",
 "425": "One",
 "426": "ake",
 "427": "ore",
 "428": "Ġbig",
 "429": "fu",
 "430": "Ġsp",
 "431": "ide",
 "432": "Ġsaw",
 "433": "ĠB",
 "434": "hing",
 "435": "Ġupon",
 "436": "Ġout",
 "437": "ard",
 "438": "Ġcould",
 "439": "ic",
 "440": "iled",
 "441": "one",
 "442": "round",
 "443": "ra",
 "444": "ry",
 "445": "Ġsmiled",
 "446": "Ġhim",
 "447": "ĠA",
 "448": "Ġmom",
 "449": "hen",
 "450": "way",
 "451": "ur",
 "452": "ĠIt",
 "453": "ful",
 "454": "ĠM",
 "455": "ain",
 "456": "Ġwent",
 "457": "Ġhel",
 "458": "Ġwanted",
 "459": "Ġnot",
 "460": "ĠThey",
 "461": "ind",
 "462": "are",
 "463": "ear",
 "464": "Ġall",
 "465": "Ġfriends",
 "466": "Ġgo",
 "467": "Ġhelp",
 "468": "Ġtoo",
 "469": "ily",
 "470": "ame",
 "471": "ĠTim",
 "472": "ĠL",
 "473": "omet",
 "474": "Ġlo",
 "475": "ght",
 "476": "Ġsomet",
 "477": "Ġat",
 "478": "Ġdo",
 "479": "Ġasked",
 "480": "Ġaround",
 "481": "ree",
 "482": "Ġj",
 "483": "?\"",
 "484": "Ġlooked",
 "485": "Ġsomething",
 "486": "Ġse",
 "487": "Ġwor",
 "488": "dd",
 "489": "hed",
 "490": "ood",
 "491": "Ġcl",
 "492": "Ġcan",
 "493": "amed",
 "494": "ro",
 "495": "Ġback",
 "496": "ark",
 "497": "ĠE",
 "498": "king",
 "499": "rom",
 "500": "Ġexc",
 "501": "ab",
 "502": "ick",
 "503": "ure",
 "504": "Ġwould",
 "505": "get",
 "506": "Ġfa",
 "507": "ss",
 "508": "Ġag",
 "509": "Ġnamed",
 "510": "Ġstar",
 "511": "Ġboy",
 "512": "Ġexcit",
 "513": "Ġal",
 "514": "Ġold",
 "515": "ice",
 "516": "side",
 "517": "Ġfe",
 "518": "Ġis",
 "519": "ag",
 "520": "ep",
 "521": "ie",
 "522": "Ġget",
 "523": "hat",
 "524": "pl",
 "525": "Ġch",
 "526": "Ġno",
 "527": "Ġran",
 "528": "Ġstarted",
 "529": "ea",
 "530": "ran",
 "531": "ust",
 "532": "Ġwhen",
 "533": "Ġhave",
 "534": "gether",
 "535": "us",
 "536": "Ġloved",
 "537": "hn",
 "538": "ohn",
 "539": "Ġexcited",
 "540": "nt",
 "541": "Ġthem",
 "542": "ong",
 "543": "Ġwho",
 "544": "Ġagain",
 "545": "Ġhome",
 "546": "Ġman",
 "547": "elt",
 "548": "Ġwal",
 "549": "Ġfelt",
 "550": "ĠOne",
 "551": "Ġfun",
 "552": "ĠÃ¢",
 "553": "Ġthen",
 "554": "Ġtogether",
 "555": "ĠW",
 "556": "Ġaway",
 "557": "Ġsc",
 "558": "Ġpark",
 "559": "Ġsad",
 "560": "ĠJack",
 "561": "ny",
 "562": "Åĵ",
 "563": "Ġfound",
 "564": "Ġevery",
 "565": "ĠD",
 "566": "Ġdid",
 "567": "Ġplaying",
 "568": "aug",
 "569": "ouse",
 "570": "Ġme",
 "571": "ummy",
 "572": "qu",
 "573": "Ġab",
 "574": "Ġsome",
 "575": "Ġfeel",
 "576": "Ġtheir",
 "577": "ought",
 "578": "pped",
 "579": "Ġke",
 "580": "Ġpo",
 "581": "Ġlike",
 "582": "udd",
 "583": "Ġfl",
 "584": "eci",
 "585": "ther",
 "586": "Ġcare",
 "587": "Ġthing",
 "588": "Ġnever",
 "589": "Ġother",
 "590": "lly",
 "591": "Ġspeci",
 "592": "Ġspecial",
 "593": "em",
 "594": "Ġthis",
 "595": "op",
 "596": "ade",
 "597": "uc",
 "598": "uch",
 "599": "Ġbir",
 "600": "Ġmake",
 "601": "own",
 "602": "ĠF",
 "603": "Ġfrom",
 "604": "Ġpr",
 "605": "ways",
 "606": "udden",
 "607": "Ġv",
 "608": "Ġen",
 "609": "if",
 "610": "pt",
 "611": "Ġtake",
 "612": "Ġtree",
 "613": "Ġlot",
 "614": "Ġco",
 "615": "Ġthan",
 "616": "Ġbec",
 "617": "âĤ¬â",
 "618": "Ġalways",
 "619": "Ġwater",
 "620": "ared",
 "621": "ight",
 "622": "Ġnew",
 "623": "ĠBut",
 "624": "uddenly",
 "625": "Ġqu",
 "626": "ace",
 "627": "dy",
 "628": "fter",
 "629": "Ġsun",
 "630": "Ġthought",
 "631": "Ġtoy",
 "632": "our",
 "633": "ise",
 "634": "Ġexpl",
 "635": ",\"",
 "636": "ile",
 "637": "os",
 "638": "oud",
 "639": "Ġdec",
 "640": "Ġmade",
 "641": "ous",
 "642": "Ġone",
 "643": "Ġro",
 "644": "Ġsmall",
 "645": "Ġwhat",
 "646": "Ġgot",
 "647": "ided",
 "648": "Ġint",
 "649": "ried",
 "650": "Ġabout",
 "651": "Ġbird",
 "652": "Ġdecided",
 "653": "ma",
 "654": "Ġsw",
 "655": "nder",
 "656": "Ġput",
 "657": "Ħ¢",
 "658": "Ġtw",
 "659": "Ġgra",
 "660": "âĤ¬âĦ¢",
 "661": "Ġhow",
 "662": "Ġmy",
 "663": "Ġgood",
 "664": "ant",
 "665": "Ġoutside",
 "666": "Ġcouldn",
 "667": "able",
 "668": "ucy",
 "669": "It",
 "670": "as",
 "671": "and",
 "672": "Ġlear",
 "673": "Ġdown",
 "674": "Ġmo",
 "675": "elf",
 "676": "ump",
 "677": "ally",
 "678": "ob",
 "679": "Ġad",
 "680": "Ġcall",
 "681": "ist",
 "682": "Ġkne",
 "683": "Ġscared",
 "684": "Ġthings",
 "685": "ge",
 "686": "ite",
 "687": "Ġcame",
 "688": "Ġyour",
 "689": "Ġlived",
 "690": "ber",
 "691": "Ġwill",
 "692": "Ġway",
 "693": "Ġfind",
 "694": "Ġpick",
 "695": "Ġgre",
 "696": "Ġgard",
 "697": "ady",
 "698": "Ġsee",
 "699": "ĠEvery",
 "700": "Ġkept",
 "701": "Ġgarden",
 "702": "You",
 "703": "au",
 "704": "ild",
 "705": "ned",
 "706": "Ġcar",
 "707": "Ġcat",
 "708": "ower",
 "709": "ĠJohn",
 "710": "iced",
 "711": "Ġfast",
 "712": "Ġcalled",
 "713": "ky",
 "714": "now",
 "715": "ue",
 "716": "Ġbr",
 "717": "Ġbug",
 "718": "Ġmore",
 "719": "ish",
 "720": "Ġbear",
 "721": "Ġnoticed",
 "722": "ave",
 "723": "ched",
 "724": "ell",
 "725": "ive",
 "726": "lo",
 "727": "Ġho",
 "728": "Ġtook",
 "729": "Ġinto",
 "730": "oy",
 "731": "Ġhug",
 "732": "Ġfo",
 "733": "Ġpre",
 "734": "Ġdad",
 "735": "right",
 "736": "Ġclos",
 "737": "here",
 "738": "Ġlaug",
 "739": "Ġoff",
 "740": "Ġtwo",
 "741": "'m",
 "742": "What",
 "743": "self",
 "744": "ving",
 "745": "Ġhouse",
 "746": "ate",
 "747": "Ġsoon",
 "748": "John",
 "749": "bb",
 "750": "vent",
 "751": "Ġta",
 "752": "Ġmuch",
 "753": "ort",
 "754": "ĠSo",
 "755": "Ġunt",
 "756": "Ġrun",
 "757": "Ġwant",
 "758": "Ġflower",
 "759": "Ġlots",
 "760": "Ġknew",
 "761": "Ġuntil",
 "762": "So",
 "763": "uck",
 "764": "Ġcome",
 "765": "ary",
 "766": "ened",
 "767": "Ġbest",
 "768": "Ġnow",
 "769": "Ġplayed",
 "770": "Ġshow",
 "771": "Ġany",
 "772": "Ġjump",
 "773": "Ġthanked",
 "774": "bit",
 "775": "ning",
 "776": "Ġare",
 "777": "Ġwar",
 "778": "Ġover",
 "779": "Ġlook",
 "780": "ĠLily",
 "781": "Jack",
 "782": "ged",
 "783": "Ġwo",
 "784": "Ġwat",
 "785": "Ġtow",
 "786": "imal",
 "787": "Ġyear",
 "788": "Ġkitt",
 "789": "Ġanimal",
 "790": "ess",
 "791": "urp",
 "792": "abbit",
 "793": "Ġif",
 "794": "ane",
 "795": "fe",
 "796": "th",
 "797": "Ġtry",
 "798": "Ġtold",
 "799": "Ġlong",
 "800": "Ġheard",
 "801": "Ġmag",
 "802": "Ġgave",
 "803": "ommy",
 "804": "Ġever",
 "805": "Ġbea",
 "806": "other",
 "807": "Ġrem",
 "808": "Ġboat",
 "809": "ĠAnd",
 "810": "Ġjust",
 "811": "Ġfeeling",
 "812": "Let",
 "813": "ax",
 "814": "gh",
 "815": "wl",
 "816": "ough",
 "817": "Ġdon",
 "818": "Ġwalking",
 "819": "Ġdidn",
 "820": "ause",
 "821": "ĠC",
 "822": "That",
 "823": "ting",
 "824": "ull",
 "825": "ven",
 "826": "Ġtea",
 "827": "Ġsky",
 "828": "Ġsurp",
 "829": "ine",
 "830": "Ġby",
 "831": "Ġbet",
 "832": "Ġpa",
 "833": "Ġground",
 "834": "Ġinside",
 "835": "Ġend",
 "836": "Ġstran",
 "837": "Ġrabbit",
 "838": "Ġplace",
 "839": "Ġcareful",
 "840": "Ġbecause",
 "841": "Ġkitty",
 "842": "Ġsurpr",
 "843": "Suddenly",
 "844": "Yes",
 "845": "iz",
 "846": "Ġar",
 "847": "Ġsl",
 "848": "Ġfore",
 "849": "Ġlea",
 "850": "Ġop",
 "851": "enny",
 "852": "immy",
 "853": "Ġneed",
 "854": "Ġbox",
 "855": "aught",
 "856": "Ġquick",
 "857": "When",
 "858": "ip",
 "859": "Ġtur",
 "860": "Ġtried",
 "861": "Ġama",
 "862": "ream",
 "863": "Ġthree",
 "864": "Ġsto",
 "865": "igh",
 "866": "ĠJill",
 "867": "Ġliked",
 "868": "Ġchild",
 "869": "ush",
 "870": "Ġwalked",
 "871": "Ġroom",
 "872": "Ġadvent",
 "873": "Ġcloser",
 "874": "Ġwonder",
 "875": "Ġmagic",
 "876": "Ġamaz",
 "877": "ĠG",
 "878": "ĠN",
 "879": "Ġim",
 "880": "ger",
 "881": "ied",
 "882": "joy",
 "883": "mer",
 "884": "Ġtr",
 "885": "Ġafter",
 "886": "Ġbot",
 "887": "ĠHer",
 "888": "uti",
 "889": "Ġknow",
 "890": "Ġprin",
 "891": "Ġproud",
 "892": "Ġexplore",
 "893": "Ġlaughed",
 "894": "ase",
 "895": "Ġbu",
 "896": "Ġmouse",
 "897": "ĠThen",
 "898": "ĠJane",
 "899": "Ġshould",
 "900": "ect",
 "901": "Ġenjoy",
 "902": "Ġlearned",
 "903": "Ġpicked",
 "904": "Ġanimals",
 "905": "Ġbetter",
 "906": "ah",
 "907": "by",
 "908": "lie",
 "909": "sed",
 "910": "Ġbl",
 "911": "Ġfr",
 "912": "Ġcon",
 "913": "Ġpe",
 "914": "arah",
 "915": "Ġstill",
 "916": "Ġrepl",
 "917": "ĠLucy",
 "918": "ĠDad",
 "919": "ember",
 "920": "Ġbeauti",
 "921": "Ġforest",
 "922": "Ġquickly",
 "923": "Ġadventure",
 "924": "Ġreplied",
 "925": "Ġbeautiful",
 "926": "Mummy",
 "927": "Th",
 "928": "ff",
 "929": "oe",
 "930": "rong",
 "931": "Ġsure",
 "932": "Ġfam",
 "933": "Ġlady",
 "934": "ĠHis",
 "935": "Ġnice",
 "936": "ĠBob",
 "937": "Ġeveryone",
 "938": "Ġgreat",
 "939": "Ġide",
 "940": "ap",
 "941": "ach",
 "942": "fore",
 "943": "port",
 "944": "thing",
 "945": "Ġwait",
 "946": "Ġlet",
 "947": "Ġhand",
 "948": "Ġey",
 "949": "Ġbeg",
 "950": "Ġlooking",
 "951": "room",
 "952": "Ġmany",
 "953": "Ġremember",
 "954": "Ġfamily",
 "955": "ĠYou",
 "956": "cher",
 "957": "oice",
 "958": "olly",
 "959": "uff",
 "960": "Ġwind",
 "961": "Ġfin",
 "962": "Ġfar",
 "963": "Ġfle",
 "964": "Ġfish",
 "965": "Ġcra",
 "966": "Ġcry",
 "967": "Ġdin",
 "968": "Ġgame",
 "969": "ank",
 "970": "Ġits",
 "971": "ĠSam",
 "972": "Ġbeen",
 "973": "Ġbefore",
 "974": "ool",
 "975": "Ġseen",
 "976": "ĠWhen",
 "977": "Ġpond",
 "978": "Ġteacher",
 "979": "Ġboth",
 "980": "Ġidea",
 "981": "ner",
 "982": "Ġsound",
 "983": "Ġhere",
 "984": "Ġdis",
 "985": "Ġdan",
 "986": "llow",
 "987": "Ġstay",
 "988": "ves",
 "989": "Ġshare",
 "990": "illy",
 "991": "Ġbecame",
 "992": "Ġhugged",
 "993": "bbed",
 "994": "Ġjumped",
 "995": "Ġyears",
 "996": "bye",
 "997": "Ġice",
 "998": "Lucy",
 "999": "day",
 "1000": "eet",
 "1001": "ng",
 "1002": "ty",
 "1003": "iny",
 "1004": "Ġfood",
 "1005": "Ġcom",
 "1006": "Ġdel",
 "1007": "Ġgr",
 "1008": "ised",
 "1009": "ĠSuddenly",
 "1010": "Ġeven",
 "1011": "Ġstor",
 "1012": "ĠIn",
 "1013": "ĠJoe",
 "1014": "Ġsmile",
 "1015": "Ġnear",
 "1016": "ching",
 "1017": "ĠAs",
 "1018": "Ġpret",
 "1019": "Ġwonderful",
 "1020": "Ġbegan",
 "1021": "Ġflew",
 "1022": "No",
 "1023": "ac",
 "1024": "eep",
 "1025": "ink",
 "1026": "Ġbed",
 "1027": "Ġbra",
 "1028": "Ġhard",
 "1029": "Ġlist",
 "1030": "Ġper",
 "1031": "Ġmother",
 "1032": "ĠSue",
 "1033": "Ġhappily",
 "1034": "Ġwhy",
 "1035": "Ġwhile",
 "1036": "Ġkind",
 "1037": "Ġdog",
 "1038": "Ġdoor",
 "1039": "Ġwork",
 "1040": "Ġworld",
 "1041": "dded",
 "1042": "age",
 "1043": "Ġvoice",
 "1044": "Ġsweet",
 "1045": "Ġgrabbed",
 "1046": "Ġgoodbye",
 "1047": "Ġstrange",
 "1048": "Ġstopped",
 "1049": "Ġeyes",
 "1050": "ĠP",
 "1051": "Ġz",
 "1052": "Ġright",
 "1053": "Tim",
 "1054": "ious",
 "1055": "Ġball",
 "1056": "Ġpain",
 "1057": "Ġdro",
 "1058": "Ġmat",
 "1059": "Ġmor",
 "1060": "Ġowl",
 "1061": "les",
 "1062": "Ġhaving",
 "1063": "ĠSarah",
 "1064": "Ġeat",
 "1065": "Ġeach",
 "1066": "irst",
 "1067": "Ġunder",
 "1068": "river",
 "1069": "rived",
 "1070": "Ġste",
 "1071": "ook",
 "1072": "ĠJimmy",
 "1073": "ards",
 "1074": "Ġmommy",
 "1075": "rank",
 "1076": "ĠFrom",
 "1077": "Ġcol",
 "1078": "Ġtoys",
 "1079": "Ġwatched",
 "1080": "Ġarrived",
 "1081": "Ġslow",
 "1082": "Ġopened",
 "1083": "Ġve",
 "1084": "But",
 "1085": "ais",
 "1086": "Ġtre",
 "1087": "Ġche",
 "1088": "Ġdif",
 "1089": "Ġgl",
 "1090": "Ġgum",
 "1091": "Ġgive",
 "1092": "Ġun",
 "1093": "ster",
 "1094": "Ġreal",
 "1095": "ĠTom",
 "1096": "ĠTimmy",
 "1097": "Ġnodded",
 "1098": "Ġkeep",
 "1099": "ople",
 "1100": "Ġfollow",
 "1101": "Ġwarm",
 "1102": "Ġmagical",
 "1103": "Ġamazing",
 "1104": "Ġpeople",
 "1105": "ĠDaddy",
 "1106": "aisy",
 "1107": "He",
 "1108": "ct",
 "1109": "ia",
 "1110": "ient",
 "1111": "ton",
 "1112": "uri",
 "1113": "upp",
 "1114": "xt",
 "1115": "Ġbright",
 "1116": "Ġfill",
 "1117": "Ġfull",
 "1118": "ered",
 "1119": "Ġgone",
 "1120": "ished",
 "1121": "lla",
 "1122": "Ġbeing",
 "1123": "Ġuse",
 "1124": "pping",
 "1125": "Ġrel",
 "1126": "fully",
 "1127": "Ġhimself",
 "1128": "Ġgoing",
 "1129": "ĠLet",
 "1130": "Ġword",
 "1131": "ĠEm",
 "1132": "Ġothers",
 "1133": "ĠEveryone",
 "1134": "Ġtast",
 "1135": "Ġsurprise",
 "1136": "ized",
 "1137": "Thank",
 "1138": "Ġ-",
 "1139": "'ll",
 "1140": "Can",
 "1141": "Mommy",
 "1142": "Wh",
 "1143": "har",
 "1144": "ix",
 "1145": "ion",
 "1146": "Ġbit",
 "1147": "Ġfly",
 "1148": "Ġloud",
 "1149": "Ġcle",
 "1150": "Ġcuri",
 "1151": "Ġpare",
 "1152": "Ġpupp",
 "1153": "Then",
 "1154": "alk",
 "1155": "Ġready",
 "1156": "ĠAmy",
 "1157": "ĠAfter",
 "1158": "epend",
 "1159": "nts",
 "1160": "Ġable",
 "1161": "Ġcarefully",
 "1162": "Ġmost",
 "1163": "loom",
 "1164": "Ġrunning",
 "1165": "Ġenjoyed",
 "1166": "Ġdinner",
 "1167": "Ġbrave",
 "1168": "Ġparents",
 "1169": "Ġpuppy",
 "1170": "ak",
 "1171": "aking",
 "1172": "ble",
 "1173": "Ġsle",
 "1174": "Ġwhere",
 "1175": "Ġbad",
 "1176": "Ġtouch",
 "1177": "ret",
 "1178": "Ġhur",
 "1179": "outed",
 "1180": "Ġless",
 "1181": "Ġhear",
 "1182": "Ġpat",
 "1183": "Ġmum",
 "1184": "ather",
 "1185": "They",
 "1186": "Ġem",
 "1187": "irt",
 "1188": "ames",
 "1189": "Ġshouted",
 "1190": "Ġnext",
 "1191": "Ġkid",
 "1192": "ĠMary",
 "1193": "ĠMax",
 "1194": "ĠLittle",
 "1195": "Ġface",
 "1196": "Ġcatch",
 "1197": "Ġfaster",
 "1198": "Ġhole",
 "1199": "ĠNow",
 "1200": "uffy",
 "1201": "Ġfilled",
 "1202": "\".",
 "1203": "His",
 "1204": "fect",
 "1205": "hone",
 "1206": "led",
 "1207": "sh",
 "1208": "Ġsear",
 "1209": "Ġbun",
 "1210": "Ġle",
 "1211": "lease",
 "1212": "Ġthr",
 "1213": "Ġbeh",
 "1214": "Ġherself",
 "1215": "irc",
 "1216": "ired",
 "1217": "Ġus",
 "1218": "Ġname",
 "1219": "Ġyummy",
 "1220": "Ġred",
 "1221": "Ġrace",
 "1222": "Ġyoung",
 "1223": "Ġshiny",
 "1224": "ĠTo",
 "1225": "ĠAl",
 "1226": "Ġmoment",
 "1227": "ĠMummy",
 "1228": "Ġfav",
 "1229": "Ġgetting",
 "1230": "Ġwalk",
 "1231": "Ġsomeone",
 "1232": "Ġexplor",
 "1233": "Ġtowards",
 "1234": "fere",
 "1235": "Ġimport",
 "1236": "Ġperfect",
 "1237": "Ġdiffere",
 "1238": "Ġcurious",
 "1239": "Ġbunny",
 "1240": "Ġimportant",
 "1241": "Don",
 "1242": "cream",
 "1243": "est",
 "1244": "ft",
 "1245": "oon",
 "1246": "sent",
 "1247": "tle",
 "1248": "where",
 "1249": "ze",
 "1250": "Ġtired",
 "1251": "Ġac",
 "1252": "Ġam",
 "1253": "Ġsor",
 "1254": "Ġsec",
 "1255": "Ġsnow",
 "1256": "Ġwaved",
 "1257": "Ġbar",
 "1258": "Ġhigh",
 "1259": "Ġfirst",
 "1260": "Ġlake",
 "1261": "Ġcher",
 "1262": "Ġpar",
 "1263": "Ġpie",
 "1264": "Ġmon",
 "1265": "Ġmust",
 "1266": "Ġmummy",
 "1267": "Ġsafe",
 "1268": "iry",
 "1269": "Ġstone",
 "1270": "Ġshop",
 "1271": "Ġrec",
 "1272": "Ġkn",
 "1273": "ĠMolly",
 "1274": "Ġworry",
 "1275": "ssed",
 "1276": "Ġnoise",
 "1277": "Ġeverything",
 "1278": "ĠFrank",
 "1279": "Ġenough",
 "1280": "Ġgrass",
 "1281": "Ġpresent",
 "1282": "Ġflowers",
 "1283": "Ġcont",
 "1284": "Ġcoming",
 "1285": "Ġstory",
 "1286": "Ġslowly",
 "1287": "Ġsleep",
 "1288": "Ġlesson",
 "1289": "Ġthrough",
 "1290": "Ġsorry",
 "1291": "Ġpiece",
 "1292": "Her",
 "1293": "Lily",
 "1294": "She",
 "1295": "ached",
 "1296": "een",
 "1297": "fly",
 "1298": "luffy",
 "1299": "ose",
 "1300": "rat",
 "1301": "ued",
 "1302": "hes",
 "1303": "Ġtri",
 "1304": "Ġapp",
 "1305": "Ġwood",
 "1306": "Ġwrong",
 "1307": "inued",
 "1308": "Ġbran",
 "1309": "reed",
 "1310": "Ġfix",
 "1311": "Ġla",
 "1312": "Ġpull",
 "1313": "Ġdone",
 "1314": "Ġmess",
 "1315": "Ġmaking",
 "1316": "Ġgi",
 "1317": "isit",
 "1318": "Ġnight",
 "1319": "Ġstrong",
 "1320": "Ġreally",
 "1321": "terfly",
 "1322": "Ġbutton",
 "1323": "Ġbutterfly",
 "1324": "icy",
 "1325": "ĠMia",
 "1326": "Ġworked",
 "1327": "Ġworried",
 "1328": "ĠElly",
 "1329": "ĠElla",
 "1330": "Ġvisit",
 "1331": "Ġcold",
 "1332": "andy",
 "1333": "Ġdaddy",
 "1334": "Ġtrying",
 "1335": "Ġsurprised",
 "1336": "Ġleaves",
 "1337": "Ġremembered",
 "1338": "Ġcrab",
 "1339": "Ġlisten",
 "1340": "Ġglad",
 "1341": "ependable",
 "1342": "Ġdifferent",
 "1343": "Ġmonster",
 "1344": "Ġcontinued",
 "1345": "Ġpulled",
 "1346": "ĠR",
 "1347": "Oh",
 "1348": "bed",
 "1349": "ele",
 "1350": "gry",
 "1351": "more",
 "1352": "na",
 "1353": "nie",
 "1354": "ul",
 "1355": "ual",
 "1356": "Ġwon",
 "1357": "Ġfig",
 "1358": "Ġfree",
 "1359": "ers",
 "1360": "Ġland",
 "1361": "Ġcaught",
 "1362": "Ġhead",
 "1363": "Ġpenny",
 "1364": "Ġdre",
 "1365": "Ġmet",
 "1366": "Ġmus",
 "1367": "Ġgather",
 "1368": "Ġthink",
 "1369": "ord",
 "1370": "orite",
 "1371": "ĠSp",
 "1372": "Ġear",
 "1373": "Ġbel",
 "1374": "Ġra",
 "1375": "Ġplant",
 "1376": "Ġhappen",
 "1377": "Ġlove",
 "1378": "Ġseem",
 "1379": "Ġcla",
 "1380": "ĠDaisy",
 "1381": "ours",
 "1382": "Ġexplain",
 "1383": "Ġlearn",
 "1384": "Ġgreen",
 "1385": "Ġanymore",
 "1386": "Ġprint",
 "1387": "ape",
 "1388": "Ġfinished",
 "1389": "Ġfarmer",
 "1390": "Ġdelic",
 "1391": "Ġpretty",
 "1392": "Ġunderst",
 "1393": "Ġstepped",
 "1394": "Ġcolor",
 "1395": "Ġtrees",
 "1396": "Ġrealized",
 "1397": "Ġhurt",
 "1398": "Ġkids",
 "1399": "Ġfavorite",
 "1400": "Ġfigure",
 "1401": "Amy",
 "1402": "After",
 "1403": "Bob",
 "1404": "Hell",
 "1405": "Jimmy",
 "1406": "Little",
 "1407": "Mom",
 "1408": "We",
 "1409": "Wow",
 "1410": "bor",
 "1411": "io",
 "1412": "ike",
 "1413": "ich",
 "1414": "kay",
 "1415": "oke",
 "1416": "sp",
 "1417": "sy",
 "1418": "tur",
 "1419": "zy",
 "1420": "zag",
 "1421": "Ġadd",
 "1422": "Ġsay",
 "1423": "Ġsat",
 "1424": "Ġside",
 "1425": "inky",
 "1426": "Ġbro",
 "1427": "Ġtop",
 "1428": "ren",
 "1429": "Ġcake",
 "1430": "Ġcirc",
 "1431": "Ġpic",
 "1432": "Ġpro",
 "1433": "Ġprom",
 "1434": "Ġplease",
 "1435": "inging",
 "1436": "Ġdriver",
 "1437": "Ġor",
 "1438": "aring",
 "1439": "ature",
 "1440": "enise",
 "1441": "ceful",
 "1442": "Ġused",
 "1443": "cks",
 "1444": "cket",
 "1445": "rior",
 "1446": "ĠThere",
 "1447": "igzag",
 "1448": "alth",
 "1449": "Ġshirt",
 "1450": "Ġretur",
 "1451": "ĠTh",
 "1452": "fused",
 "1453": "ĠAn",
 "1454": "ĠAll",
 "1455": "ĠMom",
 "1456": "ĠMommy",
 "1457": "Ġclim",
 "1458": "ross",
 "1459": "arket",
 "1460": "Ġfairy",
 "1461": "Ġagreed",
 "1462": "Ġalone",
 "1463": "ĠWe",
 "1464": "Ġpocket",
 "1465": "Ġeng",
 "1466": "Ġbirds",
 "1467": "Ġmove",
 "1468": "Ġshowed",
 "1469": "Ġwarrior",
 "1470": "Ġlonger",
 "1471": "ĠChar",
 "1472": "Ġpass",
 "1473": "Ġstranger",
 "1474": "Ġchildren",
 "1475": "Ġtruck",
 "1476": "Ġadventures",
 "1477": "Ġcrawl",
 "1478": "Ġdisc",
 "1479": "Ġdance",
 "1480": "Ġgrow",
 "1481": "Ġdrove",
 "1482": "Ġfollowed",
 "1483": "Why",
 "1484": "Ġbehind",
 "1485": "Ġacross",
 "1486": "Ġsecret",
 "1487": "Ġcherry",
 "1488": "ĠSpot",
 "1489": "Ġbelong",
 "1490": "Hello",
 "1491": "Ġ3",
 "1492": "As",
 "1493": "At",
 "1494": "And",
 "1495": "Molly",
 "1496": "Tom",
 "1497": "der",
 "1498": "ho",
 "1499": "ken",
 "1500": "lse",
 "1501": "land",
 "1502": "oin",
 "1503": "sc",
 "1504": "sw",
 "1505": "sab",
 "1506": "tra",
 "1507": "Ġsch",
 "1508": "Ġwel",
 "1509": "Ġblo",
 "1510": "Ġcre",
 "1511": "Ġcool",
 "1512": "Ġpea",
 "1513": "Ġphone",
 "1514": "Ġdry",
 "1515": "Ġdark",
 "1516": "Ġdeep",
 "1517": "Ġmarket",
 "1518": "Ġgent",
 "1519": "Ġoran",
 "1520": "iss",
 "1521": "idd",
 "1522": "eter",
 "1523": "Ġelse",
 "1524": "Ġstu",
 "1525": "key",
 "1526": "keep",
 "1527": "ign",
 "1528": "ĠJames",
 "1529": "Ġshared",
 "1530": "Ġreached",
 "1531": "Ġneigh",
 "1532": "ummer",
 "1533": "Ġfriendly",
 "1534": "Ġansw",
 "1535": "Ġspot",
 "1536": "ĠBeep",
 "1537": "ĠBinky",
 "1538": "Ġfell",
 "1539": "Ġisland",
 "1540": "Ġflo",
 "1541": "ĠFin",
 "1542": "ĠFluffy",
 "1543": "Ġqueen",
 "1544": "Ġsunny",
 "1545": "Ġswim",
 "1546": "Ġhopped",
 "1547": "Ġtail",
 "1548": "Ġlooks",
 "1549": "Ġtown",
 "1550": "Ġopen",
 "1551": "Ġneeded",
 "1552": "Ġprince",
 "1553": "Ġbuild",
 "1554": "Ġfinally",
 "1555": "Ġballoon",
 "1556": "Ġpainter",
 "1557": "Ġmatch",
 "1558": "Ġmoral",
 "1559": "Ġmorning",
 "1560": "ĠEmily",
 "1561": "Ġtasted",
 "1562": "Ġclean",
 "1563": "Ġshopkeep",
 "1564": "rated",
 "1565": "Ġwoods",
 "1566": "Ġbranch",
 "1567": "Ġseemed",
 "1568": "Ġdelicious",
 "1569": "Ġpassport",
 "1570": "sabel",
 "1571": "Ġschool",
 "1572": "Ġwelc",
 "1573": "Ġshopkeeper",
 "1574": "Ġriver",
 "1575": "'re",
 "1576": "Do",
 "1577": "Max",
 "1578": "be",
 "1579": "bar",
 "1580": "cing",
 "1581": "eed",
 "1582": "ire",
 "1583": "iet",
 "1584": "ies",
 "1585": "iable",
 "1586": "kin",
 "1587": "la",
 "1588": "ling",
 "1589": "mun",
 "1590": "pill",
 "1591": "row",
 "1592": "so",
 "1593": "ually",
 "1594": "Ġted",
 "1595": "Ġset",
 "1596": "Ġself",
 "1597": "Ġsummer",
 "1598": "ined",
 "1599": "Ġbush",
 "1600": "Ġhor",
 "1601": "Ġhide",
 "1602": "Ġhours",
 "1603": "erpill",
 "1604": "Ġwasn",
 "1605": "Ġcou",
 "1606": "Ġcut",
 "1607": "Ġpus",
 "1608": "Ġpump",
 "1609": "Ġmush",
 "1610": "Ġow",
 "1611": "Ġsack",
 "1612": "Ġthin",
 "1613": "etle",
 "1614": "Ġbelie",
 "1615": "Ġbeetle",
 "1616": "Ġyard",
 "1617": "Ġstre",
 "1618": "ĠIsabel",
 "1619": "Ġride",
 "1620": "Ġwithout",
 "1621": "Ġplan",
 "1622": "ely",
 "1623": "Ġwear",
 "1624": "Ġrelie",
 "1625": "Ġwhich",
 "1626": "Ġangry",
 "1627": "Ġbigger",
 "1628": "Ġspid",
 "1629": "Ġspoke",
 "1630": "Ġspeed",
 "1631": "ĠBloom",
 "1632": "eared",
 "1633": "Ġlog",
 "1634": "Ġclum",
 "1635": "Ġcloud",
 "1636": "Ġchas",
 "1637": "ustrated",
 "1638": "usie",
 "1639": "usual",
 "1640": "ĠWhat",
 "1641": "ÅĵI",
 "1642": "ĠDenise",
 "1643": "Ġpoin",
 "1644": "Ġpole",
 "1645": "Ġbirth",
 "1646": "âĤ¬âĢ",
 "1647": "Ġquiet",
 "1648": "Ġknee",
 "1649": "aul",
 "1650": "Ġcaterpill",
 "1651": "Ġbrought",
 "1652": "Ġbrush",
 "1653": "Ġfox",
 "1654": "Ġfoot",
 "1655": "Ġtower",
 "1656": "Ġturtle",
 "1657": "Ġturkey",
 "1658": "Ġamazed",
 "1659": "ĠGary",
 "1660": "Ġblack",
 "1661": "Ġpretend",
 "1662": "Ġvest",
 "1663": "Ġunusual",
 "1664": "Ġreliable",
 "1665": "Ġembar",
 "1666": "ĠAlice",
 "1667": "Ġexploring",
 "1668": "Ġgathered",
 "1669": "Ġpromised",
 "1670": "althy",
 "1671": "Ġclimb",
 "1672": "Ġengine",
 "1673": "scape",
 "1674": "Ġgentle",
 "1675": "Ġteddy",
 "1676": "Ġselfish",
 "1677": "Ġpumpkin",
 "1678": "Ġmushroom",
 "1679": "Ġbelieve",
 "1680": "Ġbirthday",
 "1681": "Ġcaterpillar",
 "1682": "Ġembarra",
 "1683": "ĠO",
 "1684": "Just",
 "1685": "Zigzag",
 "1686": "av",
 "1687": "ast",
 "1688": "aur",
 "1689": "bo",
 "1690": "ced",
 "1691": "ped",
 "1692": "per",
 "1693": "une",
 "1694": "Ġtight",
 "1695": "Ġtell",
 "1696": "Ġsk",
 "1697": "Ġwom",
 "1698": "Ġwet",
 "1699": "ining",
 "1700": "Ġbri",
 "1701": "Ġhar",
 "1702": "Ġhan",
 "1703": "Ġhoo",
 "1704": "oup",
 "1705": "Ġfall",
 "1706": "Ġfro",
 "1707": "Ġcase",
 "1708": "Ġpow",
 "1709": "Ġdist",
 "1710": "Ġdream",
 "1711": "Ġmight",
 "1712": "Ġgem",
 "1713": "Ġglo",
 "1714": "Ġgho",
 "1715": "arn",
 "1716": "idge",
 "1717": "Ġsaf",
 "1718": "ance",
 "1719": "anic",
 "1720": "vered",
 "1721": "ĠSandy",
 "1722": "Ġnaught",
 "1723": "Ġsock",
 "1724": "Ġyell",
 "1725": "Ġyarn",
 "1726": "Ġstore",
 "1727": "Ġstop",
 "1728": "Ġstuck",
 "1729": "Ġrad",
 "1730": "Ġwell",
 "1731": "Ġshore",
 "1732": "Ġwhite",
 "1733": "ĠThat",
 "1734": "Ġspent",
 "1735": "ĠBen",
 "1736": "ĠBear",
 "1737": "ĠBilly",
 "1738": "oney",
 "1739": "Ġlost",
 "1740": "Ġjoin",
 "1741": "Ġclose",
 "1742": "Ġalso",
 "1743": "Ġchip",
 "1744": "Ġchalk",
 "1745": "ranny",
 "1746": "ĠWh",
 "1747": "Ġmeet",
 "1748": "ement",
 "1749": "osaur",
 "1750": "Ġswing",
 "1751": "anding",
 "1752": "Ġbring",
 "1753": "Ġhopping",
 "1754": "Ġclosed",
 "1755": "Ġlaughing",
 "1756": "ventually",
 "1757": "Ġanything",
 "1758": "Ġwatch",
 "1759": "ĠAndy",
 "1760": "Ġleave",
 "1761": "ĠGranny",
 "1762": "Ġbuy",
 "1763": "Ġblue",
 "1764": "Ġfrustrated",
 "1765": "Ġconfused",
 "1766": "This",
 "1767": "Ġwindow",
 "1768": "Ġbedroom",
 "1769": "Ġrelax",
 "1770": "Ġwords",
 "1771": "ĠEmma",
 "1772": "Ġpath",
 "1773": "Ġparty",
 "1774": "Ġrecord",
 "1775": "Ġtrip",
 "1776": "Ġmusic",
 "1777": "Ġclapped",
 "1778": "Ġexplained",
 "1779": "Ġunderstood",
 "1780": "Ġbroken",
 "1781": "Ġdisco",
 "1782": "iddle",
 "1783": "munk",
 "1784": "Ġrelieved",
 "1785": "Ġclumsy",
 "1786": "Ġwoman",
 "1787": "Ġhoop",
 "1788": "Ġpowder",
 "1789": "Ġglove",
 "1790": "Ġghost",
 "1791": "Ġnaughty",
 "1792": "Ġradio",
 "1793": "Ġchipmunk",
 "1794": "ĠK",
 "1795": "Ġent",
 "1796": "Hi",
 "1797": "In",
 "1798": "Sarah",
 "1799": "bled",
 "1800": "cil",
 "1801": "got",
 "1802": "ges",
 "1803": "iers",
 "1804": "ond",
 "1805": "rs",
 "1806": "ray",
 "1807": "set",
 "1808": "uce",
 "1809": "we",
 "1810": "ward",
 "1811": "Ġtall",
 "1812": "Ġtiny",
 "1813": "Ġtalk",
 "1814": "Ġsn",
 "1815": "Ġsqu",
 "1816": "Ġsight",
 "1817": "Ġsign",
 "1818": "Ġwhe",
 "1819": "Ġwish",
 "1820": "Ġtoug",
 "1821": "Ġhot",
 "1822": "ita",
 "1823": "Ġlily",
 "1824": "Ġlight",
 "1825": "Ġlate",
 "1826": "Ġcele",
 "1827": "Ġpin",
 "1828": "Ġpen",
 "1829": "Ġpir",
 "1830": "Ġmoney",
 "1831": "Ġmiddle",
 "1832": "Ġgas",
 "1833": "Ġobed",
 "1834": "Ġokay",
 "1835": "ari",
 "1836": "ayak",
 "1837": "aybe",
 "1838": "ath",
 "1839": "ater",
 "1840": "Ġsailed",
 "1841": "ney",
 "1842": "ldiers",
 "1843": "Ġinst",
 "1844": "ĠSusie",
 "1845": "cked",
 "1846": "ries",
 "1847": "Ġsoft",
 "1848": "Ġsoldiers",
 "1849": "Ġru",
 "1850": "Ġrake",
 "1851": "ĠJenny",
 "1852": "Ġshining",
 "1853": "Ġresp",
 "1854": "Ġforgot",
 "1855": "chanic",
 "1856": "Ġhappened",
 "1857": "Ġkick",
 "1858": "Ġkayak",
 "1859": "Ġextra",
 "1860": "!\".",
 "1861": "Ġspl",
 "1862": "ĠBenny",
 "1863": "icop",
 "1864": "ured",
 "1865": "Ġhelicop",
 "1866": "Ġnothing",
 "1867": "Ġhelped",
 "1868": "Ġhelpful",
 "1869": "Ġdoing",
 "1870": "Ġdoes",
 "1871": "Ġjour",
 "1872": "Ġsea",
 "1873": "Ġclay",
 "1874": "Ġfew",
 "1875": "ager",
 "1876": "ĠWith",
 "1877": "ĠJacky",
 "1878": "ĠDependable",
 "1879": "Ġmechanic",
 "1880": "Ġmakes",
 "1881": "pty",
 "1882": "Ġcoin",
 "1883": "Ġbrown",
 "1884": "Ġbrother",
 "1885": "Ġtaking",
 "1886": "Ġwatching",
 "1887": "Ġteach",
 "1888": "Ġslide",
 "1889": "Ġneedle",
 "1890": "Ġimp",
 "1891": "Ġhands",
 "1892": "Ġdinosaur",
 "1893": "Ġsounds",
 "1894": "ĠInside",
 "1895": "Ġlistened",
 "1896": "Ġzi",
 "1897": "Ġzip",
 "1898": "Ġdropped",
 "1899": "Ġcolour",
 "1900": "Ġflying",
 "1901": "Ġheart",
 "1902": "Ġempty",
 "1903": "Ġsearching",
 "1904": "ĠTogether",
 "1905": "Ġpieces",
 "1906": "ult",
 "1907": "Ġmetal",
 "1908": "Ġcolorful",
 "1909": "Ġreturned",
 "1910": "Ġoranges",
 "1911": "Ġstudy",
 "1912": "Ġfloat",
 "1913": "Ġown",
 "1914": "Ġspider",
 "1915": "Ġembarrassed",
 "1916": "Ġtough",
 "1917": "Ġceleb",
 "1918": "Ġpencil",
 "1919": "Ġpirate",
 "1920": "Ġobedient",
 "1921": "Ġhelicopter",
 "1922": "Ġjourney",
 "1923": "Ġ'",
 "1924": "Ġour",
 "1925": "ĠZigzag",
 "1926": "Come",
 "1927": "Dad",
 "1928": "Every",
 "1929": "From",
 "1930": "If",
 "1931": "Look",
 "1932": "My",
 "1933": "Mum",
 "1934": "Mary",
 "1935": "Sam",
 "1936": "Sue",
 "1937": "Where",
 "1938": "ale",
 "1939": "air",
 "1940": "bug",
 "1941": "gle",
 "1942": "ground",
 "1943": "hood",
 "1944": "iver",
 "1945": "ks",
 "1946": "liver",
 "1947": "sist",
 "1948": "to",
 "1949": "ture",
 "1950": "vice",
 "1951": "zor",
 "1952": "zard",
 "1953": "hel",
 "1954": "Ġtal",
 "1955": "Ġair",
 "1956": "Ġsuch",
 "1957": "Ġsoup",
 "1958": "Ġwis",
 "1959": "Ġwise",
 "1960": "ndma",
 "1961": "edal",
 "1962": "innie",
 "1963": "Ġwall",
 "1964": "Ġbow",
 "1965": "Ġbag",
 "1966": "Ġbus",
 "1967": "Ġbook",
 "1968": "Ġtoday",
 "1969": "read",
 "1970": "Ġhat",
 "1971": "Ġfan",
 "1972": "ert",
 "1973": "Ġlit",
 "1974": "Ġcour",
 "1975": "Ġcream",
 "1976": "Ġpack",
 "1977": "Ġpour",
 "1978": "Ġpile",
 "1979": "Ġpower",
 "1980": "Ġpedal",
 "1981": "Ġdri",
 "1982": "Ġdaught",
 "1983": "Ġdependable",
 "1984": "Ġmis",
 "1985": "Ġmind",
 "1986": "Ġmuff",
 "1987": "arp",
 "1988": "art",
 "1989": "omed",
 "1990": "ence",
 "1991": "never",
 "1992": "anny",
 "1993": "imp",
 "1994": "Ġhair",
 "1995": "ora",
 "1996": "Ġeager",
 "1997": "Ġbeam",
 "1998": "stry",
 "1999": "Ġstr",
 "2000": "Ġstra",
 "2001": "Ġstick",
 "2002": "Ġstanding",
 "2003": "ute",
 "2004": "Ġplayful",
 "2005": "Ġplayground",
 "2006": "imes",
 "2007": "Ġshr",
 "2008": "Ġsharp",
 "2009": "Ġrece",
 "2010": "umber",
 "2011": "illage",
 "2012": "Ġlive",
 "2013": "Ġlizard",
 "2014": "Ġspicy",
 "2015": "Ġspray",
 "2016": "Ġspread",
 "2017": "race",
 "2018": "ĠMrs",
 "2019": "indy",
 "2020": "Ġhelping",
 "2021": "ĠLac",
 "2022": "Ġate",
 "2023": "Ġjob",
 "2024": "Ġjoy",
 "2025": "Ġsell",
 "2026": "Ġwouldn",
 "2027": "getable",
 "2028": "Ġexciting",
 "2029": "Ġexcitement",
 "2030": "Ġalong",
 "2031": "Ġnose",
 "2032": "Ġscre",
 "2033": "Ġsadly",
 "2034": "Ġeverywhere",
 "2035": "Ġpol",
 "2036": "Ġflame",
 "2037": "Ġvine",
 "2038": "Ġvillage",
 "2039": "Ġsmaller",
 "2040": "Ġmole",
 "2041": "Ġmoved",
 "2042": "Ġadvice",
 "2043": "bble",
 "2044": "Ġpale",
 "2045": "Ġpastry",
 "2046": "Ġplaces",
 "2047": "Ġarm",
 "2048": "Ġturn",
 "2049": "Ġturned",
 "2050": "Ġstove",
 "2051": "Ġwondered",
 "2052": "ĠGrace",
 "2053": "Ġimag",
 "2054": "Ġtrust",
 "2055": "Ġfridge",
 "2056": "Ġladybug",
 "2057": "apa",
 "2058": "achel",
 "2059": "ĠPaul",
 "2060": "ĠPapa",
 "2061": "Ġmatter",
 "2062": "Ġsteal",
 "2063": "Ġvegetable",
 "2064": "Ġbrightly",
 "2065": "Ġleg",
 "2066": "Ġleft",
 "2067": "Ġexplored",
 "2068": "Ġbarn",
 "2069": "Ġappeared",
 "2070": "Ġmessage",
 "2071": "Ġrazor",
 "2072": "Ġhappens",
 "2073": "Ġcircle",
 "2074": "Ġpicture",
 "2075": "ĠAnna",
 "2076": "ĠCharlie",
 "2077": "Ġcreature",
 "2078": "Ġpeaceful",
 "2079": "Ġspotted",
 "2080": "Ġwelcome",
 "2081": "Ġhorse",
 "2082": "Ġharbor",
 "2083": "Ġzipping",
 "2084": "Ġcourse",
 "2085": "Ġdaughter",
 "2086": "Ġmuffin",
 "2087": "ĠLacy",
 "2088": "Ġvegetables",
 "2089": "Be",
 "2090": "Ben",
 "2091": "Char",
 "2092": "Em",
 "2093": "Ella",
 "2094": "How",
 "2095": "Mia",
 "2096": "Now",
 "2097": "Of",
 "2098": "Sure",
 "2099": "Well",
 "2100": "ail",
 "2101": "app",
 "2102": "ass",
 "2103": "ball",
 "2104": "cy",
 "2105": "eer",
 "2106": "ead",
 "2107": "fie",
 "2108": "fort",
 "2109": "gn",
 "2110": "gly",
 "2111": "hlo",
 "2112": "iant",
 "2113": "lar",
 "2114": "ming",
 "2115": "mor",
 "2116": "nic",
 "2117": "ola",
 "2118": "ogn",
 "2119": "phone",
 "2120": "ten",
 "2121": "ud",
 "2122": "uel",
 "2123": "wy",
 "2124": "wed",
 "2125": "head",
 "2126": "heart",
 "2127": "Ġtid",
 "2128": "Ġtaught",
 "2129": "Ġtele",
 "2130": "Ġahead",
 "2131": "Ġsil",
 "2132": "Ġsuddenly",
 "2133": "Ġsilly",
 "2134": "Ġsna",
 "2135": "Ġwr",
 "2136": "Ġwished",
 "2137": "ince",
 "2138": "Ġwand",
 "2139": "Ġbal",
 "2140": "Ġbite",
 "2141": "Ġbuck",
 "2142": "Ġbath",
 "2143": "rel",
 "2144": "Ġhid",
 "2145": "Ġhun",
 "2146": "Ġhill",
 "2147": "Ġfuel",
 "2148": "erous",
 "2149": "Ġluck",
 "2150": "Ġcard",
 "2151": "Ġcast",
 "2152": "Ġhealthy",
 "2153": "Ġheav",
 "2154": "Ġpudd",
 "2155": "Ġpink",
 "2156": "Ġdi",
 "2157": "Ġdes",
 "2158": "Ġdea",
 "2159": "Ġmin",
 "2160": "Ġmer",
 "2161": "Ġgen",
 "2162": "Ġoct",
 "2163": "llo",
 "2164": "lls",
 "2165": "lliant",
 "2166": "Ġsail",
 "2167": "ness",
 "2168": "less",
 "2169": "leton",
 "2170": "Ġthre",
 "2171": "Ġthie",
 "2172": "ans",
 "2173": "lding",
 "2174": "ĠSally",
 "2175": "ont",
 "2176": "Ġeventually",
 "2177": "irrel",
 "2178": "Ġnature",
 "2179": "sting",
 "2180": "stal",
 "2181": "oth",
 "2182": "Ġstret",
 "2183": "keleton",
 "2184": "ĠIÃ¢",
 "2185": "Ġupset",
 "2186": "adow",
 "2187": "ĠJust",
 "2188": "Ġweight",
 "2189": "Ġshort",
 "2190": "Ġforget",
 "2191": "Ġwhale",
 "2192": "âĤ¬.",
 "2193": "Ġasking",
 "2194": "Ġkite",
 "2195": "Ġonly",
 "2196": "Ġonto",
 "2197": "Ġanother",
 "2198": "Ġlife",
 "2199": "Ġspark",
 "2200": "Ġspike",
 "2201": "ĠBill",
 "2202": "rap",
 "2203": "ĠMaisy",
 "2204": "ĠMike",
 "2205": "Ġsometimes",
 "2206": "?\".",
 "2207": "ĠEnd",
 "2208": "Ġscar",
 "2209": "Ġscare",
 "2210": "Ġscary",
 "2211": "ÅĵLet",
 "2212": "ĠDanny",
 "2213": "Ġmeadow",
 "2214": "opus",
 "2215": "ife",
 "2216": "Ġcovered",
 "2217": "Ġsunsh",
 "2218": "Ġroll",
 "2219": "Ġroad",
 "2220": "Ġrocks",
 "2221": "Ġswam",
 "2222": "Ġgraceful",
 "2223": "Ġmyster",
 "2224": "Ġadm",
 "2225": "gest",
 "2226": "Ġgrew",
 "2227": "ĠEverywhere",
 "2228": "Ġbugs",
 "2229": "ĠSoon",
 "2230": "Ġshowing",
 "2231": "Ġwoke",
 "2232": "Ġbeach",
 "2233": "Ġremind",
 "2234": "ize",
 "2235": "Ġleash",
 "2236": "Ġboxes",
 "2237": "ighted",
 "2238": "ĠNora",
 "2239": "Ġprinting",
 "2240": "Ġenjoying",
 "2241": "Ġframe",
 "2242": "Ġfront",
 "2243": "Ġwaited",
 "2244": "Ġcrystal",
 "2245": "Ġsounded",
 "2246": "Ġdisapp",
 "2247": "Ġdancing",
 "2248": "Ġstayed",
 "2249": "Ġdelighted",
 "2250": "Ġstories",
 "2251": "aced",
 "2252": "Ġsweetheart",
 "2253": "ĠPeter",
 "2254": "Ġpaint",
 "2255": "Ġeating",
 "2256": "Ġtreat",
 "2257": "Ġchest",
 "2258": "ctive",
 "2259": "ĠLetÃ¢",
 "2260": "Ġtaste",
 "2261": "blem",
 "2262": "Ġpatient",
 "2263": "Ġparade",
 "2264": "Ġstones",
 "2265": "Ġrecogn",
 "2266": "Ġknife",
 "2267": "Ġfixed",
 "2268": "Ġlazy",
 "2269": "Ġlawy",
 "2270": "Ġgiant",
 "2271": "ĠRachel",
 "2272": "Ġlandscape",
 "2273": "Ġdress",
 "2274": "Ġears",
 "2275": "Ġcircles",
 "2276": "Ġpicnic",
 "2277": "Ġproblem",
 "2278": "ĠThis",
 "2279": "ĠAnnie",
 "2280": "ĠCharles",
 "2281": "Ġbelonged",
 "2282": "Ġblocks",
 "2283": "issa",
 "2284": "Ġneighb",
 "2285": "Ġneighbor",
 "2286": "Ġanswer",
 "2287": "Ġanswered",
 "2288": "Ġcount",
 "2289": "Ġpushed",
 "2290": "Ġthinking",
 "2291": "Ġstreet",
 "2292": "Ġchasing",
 "2293": "Ġpointed",
 "2294": "âĤ¬âĢĿ",
 "2295": "Ġfootball",
 "2296": "ĠOliver",
 "2297": "body",
 "2298": "Ġbrilliant",
 "2299": "Ġhanger",
 "2300": "Ġfrog",
 "2301": "Ġdistance",
 "2302": "Ġyellow",
 "2303": "ĠKari",
 "2304": "Ġsquirrel",
 "2305": "Ġgasped",
 "2306": "Ġrespect",
 "2307": "Ġimpro",
 "2308": "Ġcolourful",
 "2309": "Ġtalking",
 "2310": "Ġwishes",
 "2311": "Ġfancy",
 "2312": "Ġshrimp",
 "2313": "Ġscreamed",
 "2314": "Ġpictures",
 "2315": "hloe",
 "2316": "larissa",
 "2317": "Ġtidy",
 "2318": "Ġtelephone",
 "2319": "Ġsilver",
 "2320": "Ġbucket",
 "2321": "Ġbathroom",
 "2322": "Ġcastle",
 "2323": "Ġdeaf",
 "2324": "Ġgenerous",
 "2325": "Ġoctopus",
 "2326": "Ġthief",
 "2327": "ÅĵLetÃ¢",
 "2328": "Ġsunshine",
 "2329": "Ġlawyer",
 "2330": "Ġind",
 "2331": "Fin",
 "2332": "Jill",
 "2333": "Jane",
 "2334": "Jenny",
 "2335": "Joe",
 "2336": "Maybe",
 "2337": "Okay",
 "2338": "Rita",
 "2339": "bur",
 "2340": "bwe",
 "2341": "cle",
 "2342": "cient",
 "2343": "dest",
 "2344": "ee",
 "2345": "ere",
 "2346": "eat",
 "2347": "ever",
 "2348": "elly",
 "2349": "fic",
 "2350": "fra",
 "2351": "gy",
 "2352": "gin",
 "2353": "ier",
 "2354": "ipped",
 "2355": "loo",
 "2356": "lace",
 "2357": "me",
 "2358": "ment",
 "2359": "mmer",
 "2360": "not",
 "2361": "oes",
 "2362": "peat",
 "2363": "red",
 "2364": "rate",
 "2365": "ruce",
 "2366": "uable",
 "2367": "uper",
 "2368": "vail",
 "2369": "wber",
 "2370": "wards",
 "2371": "ying",
 "2372": "yard",
 "2373": "zie",
 "2374": "Ġtie",
 "2375": "Ġtable",
 "2376": "Ġtrap",
 "2377": "Ġafra",
 "2378": "Ġavail",
 "2379": "Ġsis",
 "2380": "Ġsne",
 "2381": "Ġsinging",
 "2382": "Ġsince",
 "2383": "Ġsuper",
 "2384": "Ġwin",
 "2385": "Ġwing",
 "2386": "Ġwide",
 "2387": "Ġwine",
 "2388": "Ġwip",
 "2389": "inked",
 "2390": "iness",
 "2391": "Ġbre",
 "2392": "Ġbree",
 "2393": "Ġbloom",
 "2394": "Ġhum",
 "2395": "Ġhop",
 "2396": "Ġhive",
 "2397": "Ġfit",
 "2398": "Ġfur",
 "2399": "Ġfence",
 "2400": "erc",
 "2401": "Ġlater",
 "2402": "Ġlumber",
 "2403": "Ġlying",
 "2404": "Ġcor",
 "2405": "Ġcri",
 "2406": "Ġcomet",
 "2407": "Ġcried",
 "2408": "Ġcandy",
 "2409": "Ġhello",
 "2410": "Ġpet",
 "2411": "Ġpri",
 "2412": "Ġmar",
 "2413": "Ġmil",
 "2414": "Ġmix",
 "2415": "Ġgloom",
 "2416": "Ġori",
 "2417": "isted",
 "2418": "omas",
 "2419": "ens",
 "2420": "Ġsame",
 "2421": "net",
 "2422": "Ġthough",
 "2423": "angle",
 "2424": "imed",
 "2425": "Ġhas",
 "2426": "Ġhairc",
 "2427": "Ġhammer",
 "2428": "Ġitch",
 "2429": "Ġinc",
 "2430": "Ġinsist",
 "2431": "Ġeas",
 "2432": "Ġescape",
 "2433": "cess",
 "2434": "Ġbeans",
 "2435": "Ġur",
 "2436": "Ġugly",
 "2437": "cklace",
 "2438": "Ġshel",
 "2439": "Ġyes",
 "2440": "ilbur",
 "2441": "amond",
 "2442": "Ġrain",
 "2443": "Ġrare",
 "2444": "ĠJim",
 "2445": "ĠJoy",
 "2446": "Ġwealthy",
 "2447": "aluable",
 "2448": "Ġsmell",
 "2449": "Ġsmelly",
 "2450": "Ġshy",
 "2451": "Ġshut",
 "2452": "Ġshook",
 "2453": "Ġsharing",
 "2454": "Ġref",
 "2455": "Ġrever",
 "2456": "Ġrest",
 "2457": "Ġreind",
 "2458": "Ġnest",
 "2459": "Ġnecklace",
 "2460": "Ġtimes",
 "2461": "Ġforth",
 "2462": "Ġwhist",
 "2463": "umbled",
 "2464": "Ġash",
 "2465": "ĠTommy",
 "2466": "ĠTilly",
 "2467": "Ġancient",
 "2468": "Ġexerc",
 "2469": "!\",",
 "2470": "Ġboss",
 "2471": "ĠMel",
 "2472": "ĠMouse",
 "2473": "ĠMinnie",
 "2474": "ĠLiz",
 "2475": "Ġjar",
 "2476": "Ġcannot",
 "2477": "Ġbackyard",
 "2478": "Ġexcla",
 "2479": "Ġalert",
 "2480": "Ġolder",
 "2481": "Ġfeet",
 "2482": "Ġchain",
 "2483": "Ġnobody",
 "2484": "Ġagainst",
 "2485": "ÅĵYes",
 "2486": "ÅĵThank",
 "2487": "ÅĵCan",
 "2488": "ÅĵHello",
 "2489": "ĠDave",
 "2490": "Ġmeant",
 "2491": "Ġkey",
 "2492": "Ġflute",
 "2493": "Ġvaluable",
 "2494": "Ġcozy",
 "2495": "Ġcobwe",
 "2496": "Ġquite",
 "2497": "ourhood",
 "2498": "Ġrock",
 "2499": "Ġintere",
 "2500": "maid",
 "2501": "Ġgrandma",
 "2502": "Ġlearnt",
 "2503": "Ġlearning",
 "2504": "Ġmodest",
 "2505": "Ġways",
 "2506": "Ġbears",
 "2507": "Ġnowhere",
 "2508": "Ġjumping",
 "2509": "Jacky",
 "2510": "Ġmagnet",
 "2511": "Ġremain",
 "2512": "ĠCome",
 "2513": "ĠCindy",
 "2514": "ĠChloe",
 "2515": "Ġarrow",
 "2516": "Ġforever",
 "2517": "Ġtrou",
 "2518": "Ġtrue",
 "2519": "Ġbubble",
 "2520": "Ġblinked",
 "2521": "Ġpee",
 "2522": "Ġeye",
 "2523": "Ġcrying",
 "2524": "Ġdanced",
 "2525": "ngth",
 "2526": "Ġcomp",
 "2527": "Ġdelight",
 "2528": "Ġnearby",
 "2529": "Ġperm",
 "2530": "Ġkinds",
 "2531": "Ġcheered",
 "2532": "Ġchewed",
 "2533": "Ġdiffic",
 "2534": "Ġclever",
 "2535": "ependent",
 "2536": "Ġsearch",
 "2537": "Ġsearched",
 "2538": "ĠAlfie",
 "2539": "Ġbarber",
 "2540": "Ġknob",
 "2541": "Ġtriangle",
 "2542": "Ġappro",
 "2543": "Ġgiving",
 "2544": "Ġgiven",
 "2545": "Ġdrew",
 "2546": "Ġplants",
 "2547": "Ġlovely",
 "2548": "Ġadding",
 "2549": "Ġsaying",
 "2550": "ĠThomas",
 "2551": "Ġswimming",
 "2552": "Ġpushing",
 "2553": "Ġstrength",
 "2554": "Ġclouds",
 "2555": "Ġchased",
 "2556": "âĤ¬âĢľ",
 "2557": "Ġquietly",
 "2558": "Ġsafer",
 "2559": "ĠWhile",
 "2560": "Ġwindows",
 "2561": "Ġdiscover",
 "2562": "Ġsnack",
 "2563": "Ġwheel",
 "2564": "Ġinstead",
 "2565": "Ġsplas",
 "2566": "Ġcelebrate",
 "2567": "Ġpacked",
 "2568": "Ġstrawber",
 "2569": "Ġreceive",
 "2570": "Ġpolite",
 "2571": "Ġarms",
 "2572": "Ġimagined",
 "2573": "fortable",
 "2574": "Ġsnail",
 "2575": "Ġbalan",
 "2576": "Ġpuddle",
 "2577": "Ġdiamond",
 "2578": "Ġdesk",
 "2579": "Ġmermaid",
 "2580": "Ġthrew",
 "2581": "Ġscarf",
 "2582": "Ġmysterious",
 "2583": "Ġneighbourhood",
 "2584": "Ġindependent",
 "2585": "ginal",
 "2586": "Ġafraid",
 "2587": "Ġavailable",
 "2588": "Ġsister",
 "2589": "Ġsnee",
 "2590": "Ġbreeze",
 "2591": "Ġcorner",
 "2592": "Ġcrib",
 "2593": "Ġmilk",
 "2594": "Ġgloomy",
 "2595": "Ġoriginal",
 "2596": "Ġhaircut",
 "2597": "Ġreindeer",
 "2598": "Ġbossy",
 "2599": "ĠLizzie",
 "2600": "Ġexclaimed",
 "2601": "Ġcobweb",
 "2602": "Ġinteresting",
 "2603": "Ġdifficult",
 "2604": "Ġig",
 "2605": "Ġicy",
 "2606": "'d",
 "2607": "Al",
 "2608": "Billy",
 "2609": "Clarissa",
 "2610": "Frank",
 "2611": "Fluffy",
 "2612": "Hel",
 "2613": "Jim",
 "2614": "Lola",
 "2615": "Please",
 "2616": "Peter",
 "2617": "Paul",
 "2618": "Qu",
 "2619": "To",
 "2620": "aw",
 "2621": "bling",
 "2622": "com",
 "2623": "cage",
 "2624": "cles",
 "2625": "ches",
 "2626": "duc",
 "2627": "ging",
 "2628": "gust",
 "2629": "iqu",
 "2630": "ible",
 "2631": "lin",
 "2632": "lved",
 "2633": "nted",
 "2634": "oor",
 "2635": "ooth",
 "2636": "pul",
 "2637": "rot",
 "2638": "sing",
 "2639": "son",
 "2640": "sel",
 "2641": "sured",
 "2642": "tune",
 "2643": "uss",
 "2644": "vous",
 "2645": "vious",
 "2646": "ws",
 "2647": "ween",
 "2648": "xe",
 "2649": "zed",
 "2650": "zer",
 "2651": "henever",
 "2652": "hells",
 "2653": "Ġaxe",
 "2654": "Ġsit",
 "2655": "Ġsing",
 "2656": "Ġsitt",
 "2657": "Ġsong",
 "2658": "Ġsuc",
 "2659": "Ġwore",
 "2660": "Ġthese",
 "2661": "Ġwag",
 "2662": "Ġbare",
 "2663": "Ġbicy",
 "2664": "res",
 "2665": "repeat",
 "2666": "Ġhig",
 "2667": "ount",
 "2668": "Ġfing",
 "2669": "Ġfake",
 "2670": "Ġfear",
 "2671": "Ġfie",
 "2672": "Ġfine",
 "2673": "erable",
 "2674": "ergy",
 "2675": "ervous",
 "2676": "Ġlend",
 "2677": "Ġlun",
 "2678": "Ġlect",
 "2679": "Ġca",
 "2680": "Ġcur",
 "2681": "Ġheal",
 "2682": "Ġple",
 "2683": "Ġpot",
 "2684": "Ġpill",
 "2685": "Ġpra",
 "2686": "Ġpurp",
 "2687": "Ġdust",
 "2688": "Ġdem",
 "2689": "Ġduck",
 "2690": "Ġdrank",
 "2691": "Ġdirt",
 "2692": "Ġmay",
 "2693": "Ġmea",
 "2694": "Ġmiss",
 "2695": "Ġmud",
 "2696": "Ġgar",
 "2697": "Ġgig",
 "2698": "Ġgun",
 "2699": "Ġgran",
 "2700": "Ġgate",
 "2701": "Ġgames",
 "2702": "Ġoce",
 "2703": "Ġoas",
 "2704": "issed",
 "2705": "Ġsand",
 "2706": "Ġsang",
 "2707": "Ġsauce",
 "2708": "Ġthirst",
 "2709": "Ġhairy",
 "2710": "orn",
 "2711": "ĠSkeleton",
 "2712": "Ġesp",
 "2713": "ird",
 "2714": "ĠHow",
 "2715": "Ġnur",
 "2716": "Ġnervous",
 "2717": "owed",
 "2718": "Ġyet",
 "2719": "Ġoften",
 "2720": "iling",
 "2721": "Ġstumbled",
 "2722": "ama",
 "2723": "ĠIf",
 "2724": "Ġris",
 "2725": "Ġround",
 "2726": "Ġringing",
 "2727": "Ġraced",
 "2728": "veal",
 "2729": "igent",
 "2730": "ighed",
 "2731": "Ġplate",
 "2732": "Ġhadn",
 "2733": "ĠJune",
 "2734": "Ġweep",
 "2735": "Ġweak",
 "2736": "Ġsmooth",
 "2737": "Ġsmiling",
 "2738": "Ġshone",
 "2739": "Ġshoes",
 "2740": "Ġrefused",
 "2741": "Ġreveal",
 "2742": "Ġforward",
 "2743": "Ġfortune",
 "2744": "umbling",
 "2745": "Ġfright",
 "2746": "Ġask",
 "2747": "Ġkissed",
 "2748": "Ġonce",
 "2749": "ugged",
 "2750": "Ġant",
 "2751": "ected",
 "2752": "Ġlip",
 "2753": "Ġbiggest",
 "2754": "Ġspace",
 "2755": "Ġspoon",
 "2756": "ĠBruce",
 "2757": "ĠAt",
 "2758": "urous",
 "2759": "urbed",
 "2760": "Ġnote",
 "2761": "ĠLea",
 "2762": "Ġatt",
 "2763": "Ġattra",
 "2764": "Ġdolly",
 "2765": "Ġseas",
 "2766": "ĠcanÃ¢",
 "2767": "roduc",
 "2768": "Ġfauc",
 "2769": "ssel",
 "2770": "ssroom",
 "2771": "Ġagree",
 "2772": "Ġalright",
 "2773": "Ġisn",
 "2774": "aged",
 "2775": "iest",
 "2776": "Ġchore",
 "2777": "Ġchoice",
 "2778": "Ġchair",
 "2779": "Ġnosy",
 "2780": "Ġexcitedly",
 "2781": "Ġthemsel",
 "2782": "Ġmanaged",
 "2783": "Ġfunny",
 "2784": "ĠWilbur",
 "2785": "ÅĵIt",
 "2786": "ÅĵYou",
 "2787": "ÅĵThat",
 "2788": "ÅĵNo",
 "2789": "Ġeveryday",
 "2790": "ĠDon",
 "2791": "Ġmean",
 "2792": "Ġmemor",
 "2793": "Ġpoor",
 "2794": "Ġpopul",
 "2795": "Ġfluffy",
 "2796": "ecially",
 "2797": "ĠFirst",
 "2798": "Ġvio",
 "2799": "Ġenvious",
 "2800": "Ġenergy",
 "2801": "Ġthank",
 "2802": "Ġthanks",
 "2803": "Ġbecome",
 "2804": "Ġquit",
 "2805": "ourite",
 "2806": "Ġwhatever",
 "2807": "Ġintell",
 "2808": "Ġintroduc",
 "2809": "Ġbirdcage",
 "2810": "Ġsword",
 "2811": "Ġswinging",
 "2812": "Ġtwist",
 "2813": "Ġgrab",
 "2814": "ask",
 "2815": "Ġmoving",
 "2816": "Ġadult",
 "2817": "Ġyourself",
 "2818": "Ġwilling",
 "2819": "Ġfinding",
 "2820": "Ġseek",
 "2821": "ĠEverything",
 "2822": "Ġcarrot",
 "2823": "ĠJohnson",
 "2824": "Ġfastest",
 "2825": "Ġholding",
 "2826": "Ġhuge",
 "2827": "Ġfold",
 "2828": "Ġprep",
 "2829": "Ġlaugh",
 "2830": "Ġoffer",
 "2831": "Ġoffered",
 "2832": "ateful",
 "2833": "Soon",
 "2834": "Ġanywhere",
 "2835": "Ġwarned",
 "2836": "Ġkittens",
 "2837": "ĠdonÃ¢",
 "2838": "ĠdidnÃ¢",
 "2839": "ĠCan",
 "2840": "Ġbetween",
 "2841": "Ġpaper",
 "2842": "Ġleaf",
 "2843": "Ġneeds",
 "2844": "Ġadventurous",
 "2845": "ĠNo",
 "2846": "gerous",
 "2847": "Ġbott",
 "2848": "Ġshoulder",
 "2849": "Ġblank",
 "2850": "Ġfrown",
 "2851": "Ġhanded",
 "2852": "Ġbegin",
 "2853": "Ġfarm",
 "2854": "Ġdisgust",
 "2855": "Ġgrateful",
 "2856": "Ġstorm",
 "2857": "Ġharder",
 "2858": "Ġsweets",
 "2859": "Ġzo",
 "2860": "Ġzigzag",
 "2861": "Ġmatching",
 "2862": "Ġvessel",
 "2863": "Ġcheer",
 "2864": "Ġuniqu",
 "2865": "Ġfollowing",
 "2866": "ĠTodd",
 "2867": "ĠToday",
 "2868": "Ġfavourite",
 "2869": "Ġsecond",
 "2870": "Ġbarked",
 "2871": "Ġcherries",
 "2872": "Ġsleeping",
 "2873": "Ġbranches",
 "2874": "Ġlast",
 "2875": "Ġstronger",
 "2876": "Ġbuttons",
 "2877": "ĠRita",
 "2878": "ĠwonÃ¢",
 "2879": "Ġfreezer",
 "2880": "Ġlanded",
 "2881": "Ġdressed",
 "2882": "Ġmuscles",
 "2883": "Ġraven",
 "2884": "Ġclassroom",
 "2885": "Ġcolors",
 "2886": "Ġbroke",
 "2887": "Ġprove",
 "2888": "Ġreturn",
 "2889": "Ġcrawled",
 "2890": "Ġcrawling",
 "2891": "Ġdiscuss",
 "2892": "Ġgrowing",
 "2893": "Ġblocked",
 "2894": "Ġorange",
 "2895": "Ġfloor",
 "2896": "ĠFinally",
 "2897": "Ġbuilding",
 "2898": "Ġcleaning",
 "2899": "Ġwelcomed",
 "2900": "Ġlogs",
 "2901": "ÅĵIÃ¢",
 "2902": "Ġpointing",
 "2903": "Ġtightly",
 "2904": "Ġskip",
 "2905": "Ġskipped",
 "2906": "Ġbrick",
 "2907": "Ġdisturbed",
 "2908": "Ġsafely",
 "2909": "Ġyelled",
 "2910": "ĠWhy",
 "2911": "Ġentire",
 "2912": "Ġwhenever",
 "2913": "Ġsplit",
 "2914": "Daddy",
 "2915": "Ġbowed",
 "2916": "Ġbushes",
 "2917": "Ġdrive",
 "2918": "Ġmiserable",
 "2919": "Ġstrug",
 "2920": "Ġsticks",
 "2921": "Ġturns",
 "2922": "Charlie",
 "2923": "Emily",
 "2924": "Ġwrite",
 "2925": "Ġhungry",
 "2926": "Ġheavy",
 "2927": "Ġstretch",
 "2928": "Ġsparkly",
 "2929": "Ġadmire",
 "2930": "Ġreminded",
 "2931": "Ġdisappeared",
 "2932": "Ġrecognized",
 "2933": "Ġneighbors",
 "2934": "Ġcountry",
 "2935": "Finally",
 "2936": "Ġwings",
 "2937": "Ġbreak",
 "2938": "Ġhumble",
 "2939": "Ġhoped",
 "2940": "Ġprize",
 "2941": "Ġmarried",
 "2942": "Ġinsisting",
 "2943": "Ġurged",
 "2944": "Ġreversing",
 "2945": "Ġexercise",
 "2946": "Ġpeeked",
 "2947": "Ġpermit",
 "2948": "Ġapproached",
 "2949": "Ġsplash",
 "2950": "Ġsneeze",
 "2951": "Ġigloo",
 "2952": "Help",
 "2953": "Quick",
 "2954": "Ġsitting",
 "2955": "Ġsuccess",
 "2956": "Ġbarely",
 "2957": "Ġbicycle",
 "2958": "Ġhigher",
 "2959": "Ġfield",
 "2960": "Ġlunch",
 "2961": "Ġlecture",
 "2962": "Ġpract",
 "2963": "Ġpurple",
 "2964": "Ġgarage",
 "2965": "Ġocean",
 "2966": "Ġoasis",
 "2967": "Ġthirsty",
 "2968": "Ġespecially",
 "2969": "Ġnurse",
 "2970": "Ġseashells",
 "2971": "Ġfaucet",
 "2972": "Ġthemselves",
 "2973": "Ġpopular",
 "2974": "Ġviolin",
 "2975": "Ġintelligent",
 "2976": "Ġintroduced",
 "2977": "Ġblanket",
 "2978": "Ġdisgusting",
 "2979": "Ġunique",
 "2980": "ĠĠ",
 "2981": "Ġed",
 "2982": "Ġri",
 "2983": "ĠĠĊ",
 "2984": "ĠOn",
 "2985": "Ġign",
 "2986": "ĠQuick",
 "2987": "\",",
 "2988": "'.",
 "2989": "?!",
 "2990": "Are",
 "2991": "Cindy",
 "2992": "Denise",
 "2993": "Gra",
 "2994": "Good",
 "2995": "Joy",
 "2996": "James",
 "2997": "June",
 "2998": "Kate",
 "2999": "Kari",
 "3000": "Later",
 "3001": "Me",
 "3002": "Minnie",
 "3003": "Mama",
 "3004": "Poor",
 "3005": "Rem",
 "3006": "Sally",
 "3007": "Susie",
 "3008": "Tommy",
 "3009": "Tilly",
 "3010": "Yay",
 "3011": "aving",
 "3012": "aven",
 "3013": "bj",
 "3014": "bow",
 "3015": "cane",
 "3016": "ded",
 "3017": "ese",
 "3018": "ext",
 "3019": "fit",
 "3020": "fid",
 "3021": "found",
 "3022": "gan",
 "3023": "gum",
 "3024": "gled",
 "3025": "gling",
 "3026": "hh",
 "3027": "hi",
 "3028": "hip",
 "3029": "ived",
 "3030": "iour",
 "3031": "jured",
 "3032": "len",
 "3033": "lau",
 "3034": "med",
 "3035": "mined",
 "3036": "nce",
 "3037": "old",
 "3038": "pit",
 "3039": "par",
 "3040": "pted",
 "3041": "pack",
 "3042": "pool",
 "3043": "pected",
 "3044": "ru",
 "3045": "ror",
 "3046": "sit",
 "3047": "tw",
 "3048": "tor",
 "3049": "tain",
 "3050": "tion",
 "3051": "uly",
 "3052": "ubb",
 "3053": "wer",
 "3054": "walk",
 "3055": "xible",
 "3056": "Ġtick",
 "3057": "Ġtip",
 "3058": "Ġtest",
 "3059": "Ġtugged",
 "3060": "Ġadded",
 "3061": "Ġact",
 "3062": "Ġawe",
 "3063": "Ġsen",
 "3064": "Ġsent",
 "3065": "Ġsug",
 "3066": "Ġsway",
 "3067": "Ġsur",
 "3068": "Ġsick",
 "3069": "Ġsudden",
 "3070": "Ġsip",
 "3071": "Ġskeleton",
 "3072": "Ġsighed",
 "3073": "Ġwra",
 "3074": "Ġwild",
 "3075": "eds",
 "3076": "Ġwaves",
 "3077": "Ġble",
 "3078": "Ġbent",
 "3079": "Ġbab",
 "3080": "Ġbought",
 "3081": "Ġtouc",
 "3082": "Ġtomor",
 "3083": "Ġhos",
 "3084": "Ġhidd",
 "3085": "ity",
 "3086": "itely",
 "3087": "Ġfat",
 "3088": "Ġfir",
 "3089": "Ġfight",
 "3090": "Ġfather",
 "3091": "Ġfire",
 "3092": "Ġled",
 "3093": "Ġlid",
 "3094": "Ġlad",
 "3095": "Ġlone",
 "3096": "Ġcal",
 "3097": "Ġcave",
 "3098": "Ġcook",
 "3099": "Ġcrow",
 "3100": "Ġcert",
 "3101": "Ġheld",
 "3102": "Ġhesit",
 "3103": "Ġpay",
 "3104": "Ġpush",
 "3105": "Ġdr",
 "3106": "Ġdig",
 "3107": "Ġdra",
 "3108": "Ġdiz",
 "3109": "Ġdeter",
 "3110": "Ġmout",
 "3111": "Ġmug",
 "3112": "Ġmist",
 "3113": "Ġmild",
 "3114": "Ġmac",
 "3115": "Ġmaybe",
 "3116": "Ġmount",
 "3117": "Ġmask",
 "3118": "Ġgu",
 "3119": "Ġgust",
 "3120": "Ġgue",
 "3121": "Ġok",
 "3122": "Ġobj",
 "3123": "ises",
 "3124": "ides",
 "3125": "oming",
 "3126": "ated",
 "3127": "atly",
 "3128": "ative",
 "3129": "ately",
 "3130": "lled",
 "3131": "enry",
 "3132": "enge",
 "3133": "Ġsave",
 "3134": "Ġsaving",
 "3135": "There",
 "3136": "Their",
 "3137": "leep",
 "3138": "lective",
 "3139": "Ġthose",
 "3140": "anged",
 "3141": "ork",
 "3142": "orm",
 "3143": "ored",
 "3144": "orable",
 "3145": "ĠitÃ¢",
 "3146": "Ġitself",
 "3147": "Ġinv",
 "3148": "Ġinter",
 "3149": "Ġinjured",
 "3150": "ĠSure",
 "3151": "ons",
 "3152": "Ġbell",
 "3153": "Ġbeside",
 "3154": "Ġbellow",
 "3155": "Ġnap",
 "3156": "Ġnumber",
 "3157": "owing",
 "3158": "ricane",
 "3159": "Ġshell",
 "3160": "Ġshells",
 "3161": "Ġsolved",
 "3162": "sts",
 "3163": "ĠHere",
 "3164": "ilt",
 "3165": "Ġstir",
 "3166": "Ġstood",
 "3167": "Ġstep",
 "3168": "Ġstair",
 "3169": "utes",
 "3170": "utching",
 "3171": "oose",
 "3172": "Ġrid",
 "3173": "Ġrat",
 "3174": "Ġrot",
 "3175": "Ġrus",
 "3176": "Ġrise",
 "3177": "Ġdays",
 "3178": "Ġplaced",
 "3179": "Ġwearing",
 "3180": "Ġwealth",
 "3181": "Ġweird",
 "3182": "hero",
 "3183": "Ġsmoke",
 "3184": "Ġshout",
 "3185": "Ġshaking",
 "3186": "Ġshape",
 "3187": "Ġread",
 "3188": "Ġreward",
 "3189": "Ġreass",
 "3190": "Ġneare",
 "3191": "Ġnetw",
 "3192": "Ġneatly",
 "3193": "ses",
 "3194": "Ġhappiness",
 "3195": "Ġwhirl",
 "3196": "Ġasleep",
 "3197": "allenge",
 "3198": "tern",
 "3199": "Ġkiss",
 "3200": "Ġonion",
 "3201": "Ġonward",
 "3202": "Ġliving",
 "3203": "akes",
 "3204": "ictor",
 "3205": "rage",
 "3206": "ĠAre",
 "3207": "Ġallowed",
 "3208": "Ġfriendship",
 "3209": "Ġgoal",
 "3210": "Ġhelpless",
 "3211": "ĠLook",
 "3212": "ĠLul",
 "3213": "ĠLola",
 "3214": "Ġloves",
 "3215": "Ġje",
 "3216": "Ġjug",
 "3217": "Ġsew",
 "3218": "Ġsepar",
 "3219": "Ġseeds",
 "3220": "Ġworking",
 "3221": "Ġworth",
 "3222": "Ġclutching",
 "3223": "Ġbacked",
 "3224": "ĠEach",
 "3225": "ĠEventually",
 "3226": "ssment",
 "3227": "Ġstart",
 "3228": "Ġstaring",
 "3229": "Ġstarting",
 "3230": "agreed",
 "3231": "play",
 "3232": "place",
 "3233": "Ġchir",
 "3234": "Ġchase",
 "3235": "Ġchance",
 "3236": "Ġchubb",
 "3237": "Ġchoose",
 "3238": "Ġchallenge",
 "3239": "Ġwhole",
 "3240": "ĠWould",
 "3241": "ĠWill",
 "3242": "ĠWho",
 "3243": "ĠWhenever",
 "3244": "ÅĵOh",
 "3245": "ÅĵWhy",
 "3246": "ÅĵDo",
 "3247": "ÅĵLook",
 "3248": "Åĵhi",
 "3249": "quake",
 "3250": "Ġcareless",
 "3251": "ĠFo",
 "3252": "Ġprot",
 "3253": "Ġvide",
 "3254": "Ġvictor",
 "3255": "Ġcoat",
 "3256": "Ġcover",
 "3257": "Ġwaters",
 "3258": "Ġnews",
 "3259": "Ġnewfound",
 "3260": "Ġsunset",
 "3261": "Ġthoughtful",
 "3262": "osity",
 "3263": "Ġrob",
 "3264": "Ġtwirl",
 "3265": "Ġtwink",
 "3266": "Ġtwisted",
 "3267": "antly",
 "3268": "ĠcouldnÃ¢",
 "3269": "asure",
 "3270": "anded",
 "3271": "umpy",
 "3272": "Ġadorable",
 "3273": "isten",
 "3274": "bers",
 "3275": "berry",
 "3276": "Ġpicking",
 "3277": "Ġgreet",
 "3278": "Ġcars",
 "3279": "Ġbridge",
 "3280": "ives",
 "3281": "Ġhoot",
 "3282": "Ġpressed",
 "3283": "Ġcloset",
 "3284": "bbles",
 "3285": "bborn",
 "3286": "bbons",
 "3287": "Ġtaken",
 "3288": "Ġwants",
 "3289": "Ġcomes",
 "3290": "Ġanyone",
 "3291": "Ġwarning",
 "3292": "thquake",
 "3293": "ĠClarissa",
 "3294": "ĠCaw",
 "3295": "Ġpaws",
 "3296": "Ġending",
 "3297": "Ġslides",
 "3298": "Ġleaving",
 "3299": "Ġquicker",
 "3300": "Ġstolen",
 "3301": "Ġamazement",
 "3302": "ĠGood",
 "3303": "ĠNext",
 "3304": "Ġtruly",
 "3305": "Ġbottle",
 "3306": "Ġprinted",
 "3307": "Ġbury",
 "3308": "Ġbuilt",
 "3309": "ects",
 "3310": "Ġconfid",
 "3311": "Ġpebble",
 "3312": "Ġpebbles",
 "3313": "Ġwaiting",
 "3314": "uffed",
 "3315": "Ġfinish",
 "3316": "Ġflexible",
 "3317": "Ġdisagreed",
 "3318": "Ġdisplay",
 "3319": "Ġdangerous",
 "3320": "Ġcomfortable",
 "3321": "Ġgroup",
 "3322": "Ġgrumpy",
 "3323": "ĠInst",
 "3324": "action",
 "3325": "Ġpersist",
 "3326": "Ġkindness",
 "3327": "Ġpainted",
 "3328": "ĠJimmyÃ¢",
 "3329": "Ġcheese",
 "3330": "Ġunlo",
 "3331": "Ġuncom",
 "3332": "Ġrealize",
 "3333": "Ġwarmly",
 "3334": "Hey",
 "3335": "Ġbrighter",
 "3336": "Ġtasty",
 "3337": "Who",
 "3338": "While",
 "3339": "ions",
 "3340": "Ġloudly",
 "3341": "Ġclearing",
 "3342": "Ġcuriosity",
 "3343": "Ġslept",
 "3344": "Ġhurry",
 "3345": "Ġhurricane",
 "3346": "Ġpattern",
 "3347": "Ġlead",
 "3348": "Ġbehav",
 "3349": "Ġusing",
 "3350": "Ġusual",
 "3351": "Ġdifference",
 "3352": "Ġcuriously",
 "3353": "Ġacce",
 "3354": "Ġknown",
 "3355": "Ġknives",
 "3356": "rating",
 "3357": "Ġapplau",
 "3358": "Ġfixing",
 "3359": "Ġmessy",
 "3360": "ĠRabbit",
 "3361": "Ġfreeze",
 "3362": "Ġearthquake",
 "3363": "Ġraked",
 "3364": "Ġexplaining",
 "3365": "Ġdelicate",
 "3366": "Ġunderstand",
 "3367": "Ġunderstanding",
 "3368": "Ġhurts",
 "3369": "Ġsidewalk",
 "3370": "Ġpromise",
 "3371": "Ġorgan",
 "3372": "ĠThank",
 "3373": "Ġclimbed",
 "3374": "Ġstrangers",
 "3375": "ointed",
 "3376": "Ġbloss",
 "3377": "Ġcreative",
 "3378": "Ġpeace",
 "3379": "Ġstubborn",
 "3380": "Ġballoons",
 "3381": "Ġsettle",
 "3382": "Ġcounted",
 "3383": "Ġcourage",
 "3384": "Ġcute",
 "3385": "Ġowner",
 "3386": "Ġspiders",
 "3387": "Ġspeeding",
 "3388": "Ġpretended",
 "3389": "Ġclimbing",
 "3390": "Ġembarrassment",
 "3391": "ĠOK",
 "3392": "box",
 "3393": "Ġskirt",
 "3394": "Ġharsh",
 "3395": "Ġhang",
 "3396": "Ġfalling",
 "3397": "Ġdreams",
 "3398": "Ġmeeting",
 "3399": "Ġswings",
 "3400": "Ġdiscovery",
 "3401": "Ġdiscovered",
 "3402": "ĠKate",
 "3403": "Ġenter",
 "3404": "Ġentered",
 "3405": "Ġsquee",
 "3406": "Ġrubbed",
 "3407": "Ġkicked",
 "3408": "Ġkicking",
 "3409": "Ġdoesn",
 "3410": "Everyone",
 "3411": "Ġbusy",
 "3412": "Ġpowerful",
 "3413": "Ġdriving",
 "3414": "Ġmissed",
 "3415": "Ġeagerly",
 "3416": "Ġstring",
 "3417": "Ġstraight",
 "3418": "Ġreceived",
 "3419": "Ġlively",
 "3420": "Ġsprayed",
 "3421": "Ġselling",
 "3422": "Ġpolitely",
 "3423": "Ġmuffins",
 "3424": "Charles",
 "3425": "Emma",
 "3426": "assion",
 "3427": "Ġhiding",
 "3428": "Ġhung",
 "3429": "Ġheavier",
 "3430": "Ġminute",
 "3431": "Ġminutes",
 "3432": "Ġshorts",
 "3433": "Ġsparkle",
 "3434": "Ġrolled",
 "3435": "gested",
 "3436": "Ġcrystals",
 "3437": "Ġdisappointed",
 "3438": "Ġrecognize",
 "3439": "Ġstreets",
 "3440": "Ġimprove",
 "3441": "Ġimproved",
 "3442": "Ġsuperhero",
 "3443": "Ġwipe",
 "3444": "Ġwiped",
 "3445": "Ġfurry",
 "3446": "Ġfurther",
 "3447": "Ġmixed",
 "3448": "Ġincred",
 "3449": "Ġeasy",
 "3450": "Ġeasier",
 "3451": "Ġshelf",
 "3452": "Ġshelves",
 "3453": "Ġrainbow",
 "3454": "Ġrefres",
 "3455": "Ġreflective",
 "3456": "Ġwhistle",
 "3457": "Ġwhistling",
 "3458": "Ġremained",
 "3459": "Ġtrouble",
 "3460": "Ġtroubled",
 "3461": "Ġbubblegum",
 "3462": "Ġcompassion",
 "3463": "Ġwindowsill",
 "3464": "Ġdiscovering",
 "3465": "Ġsnacks",
 "3466": "Ġstrawberry",
 "3467": "Ġstrawberries",
 "3468": "Ġbalancing",
 "3469": "Ġbalanced",
 "3470": "Alice",
 "3471": "Together",
 "3472": "Ġwagged",
 "3473": "Ġfingers",
 "3474": "Ġcauti",
 "3475": "Ġcurtain",
 "3476": "Ġdemanded",
 "3477": "Ġmeasured",
 "3478": "Ġgiggled",
 "3479": "Ġgranted",
 "3480": "Ġrisks",
 "3481": "Ġrevealed",
 "3482": "Ġfrightened",
 "3483": "ĠLeave",
 "3484": "Ġattic",
 "3485": "Ġattractive",
 "3486": "Ġagreement",
 "3487": "Ġchores",
 "3488": "ÅĵThatÃ¢",
 "3489": "Ġmemories",
 "3490": "Ġthankful",
 "3491": "Ġtwisty",
 "3492": "Ġadults",
 "3493": "Ġprepare",
 "3494": "Ġbottom",
 "3495": "Ġzoomed",
 "3496": "Ġstruggling",
 "3497": "Ġsuccessful",
 "3498": "Ġedge",
 "3499": "Ġribbons",
 "3500": "Grandma",
 "3501": "Meow",
 "3502": "Remember",
 "3503": "pital",
 "3504": "rupt",
 "3505": "Ġsense",
 "3506": "Ġsuggested",
 "3507": "Ġwrapped",
 "3508": "Ġblew",
 "3509": "Ġbaby",
 "3510": "Ġtouched",
 "3511": "Ġtomorrow",
 "3512": "Ġhospital",
 "3513": "Ġhidden",
 "3514": "Ġfirm",
 "3515": "Ġladder",
 "3516": "Ġlonely",
 "3517": "Ġcookies",
 "3518": "Ġcertain",
 "3519": "Ġhesitant",
 "3520": "Ġdrawer",
 "3521": "Ġdizzy",
 "3522": "Ġdetermined",
 "3523": "Ġmouth",
 "3524": "Ġmistakes",
 "3525": "Ġmountain",
 "3526": "Ġguests",
 "3527": "Ġobjects",
 "3528": "Ġinterrupt",
 "3529": "Ġbellowed",
 "3530": "Ġstairs",
 "3531": "Ġrushed",
 "3532": "Ġnearer",
 "3533": "Ġnetwork",
 "3534": "Ġwhirlpool",
 "3535": "ĠLulu",
 "3536": "Ġchubby",
 "3537": "Ġvictorious",
 "3538": "Ġpersistent",
 "3539": "Ġuncomfortable",
 "3540": "Ġbehaviour",
 "3541": "Ġorganized",
 "3542": "Ġ8",
 "3543": "ĠU",
 "3544": "Ġx",
 "3545": "Ġing",
 "3546": "!'",
 "3547": "'ve",
 "3548": "'.\"",
 "3549": "'?\"",
 "3550": "Ah",
 "3551": "An",
 "3552": "By",
 "3553": "Bug",
 "3554": "Bill",
 "3555": "Benny",
 "3556": "Beep",
 "3557": "Binky",
 "3558": "Bless",
 "3559": "Bruce",
 "3560": "Cream",
 "3561": "Chloe",
 "3562": "Caw",
 "3563": "Des",
 "3564": "Daisy",
 "3565": "Danny",
 "3566": "Ex",
 "3567": "Elly",
 "3568": "Each",
 "3569": "Eventually",
 "3570": "Fun",
 "3571": "Gl",
 "3572": "Go",
 "3573": "Get",
 "3574": "Honey",
 "3575": "Henry",
 "3576": "Is",
 "3577": "Ice",
 "3578": "Isabel",
 "3579": "Lea",
 "3580": "Luck",
 "3581": "Mor",
 "3582": "Mel",
 "3583": "Mine",
 "3584": "Mrs",
 "3585": "Nora",
 "3586": "Ok",
 "3587": "Out",
 "3588": "Ouch",
 "3589": "Owl",
 "3590": "Oliver",
 "3591": "Put",
 "3592": "Pick",
 "3593": "Pale",
 "3594": "Rabbit",
 "3595": "Rachel",
 "3596": "Sl",
 "3597": "Somet",
 "3598": "Sandy",
 "3599": "Since",
 "3600": "See",
 "3601": "Shh",
 "3602": "Take",
 "3603": "Wat",
 "3604": "Woo",
 "3605": "With",
 "3606": "Would",
 "3607": "Wilbur",
 "3608": "Whenever",
 "3609": "Yuck",
 "3610": "ait",
 "3611": "aved",
 "3612": "aily",
 "3613": "apped",
 "3614": "aff",
 "3615": "br",
 "3616": "bel",
 "3617": "bly",
 "3618": "bank",
 "3619": "cc",
 "3620": "cu",
 "3621": "cat",
 "3622": "cut",
 "3623": "cted",
 "3624": "cal",
 "3625": "chen",
 "3626": "cting",
 "3627": "de",
 "3628": "dent",
 "3629": "dro",
 "3630": "dge",
 "3631": "dered",
 "3632": "eing",
 "3633": "ester",
 "3634": "eath",
 "3635": "free",
 "3636": "fight",
 "3637": "fant",
 "3638": "fting",
 "3639": "fast",
 "3640": "faction",
 "3641": "gs",
 "3642": "gu",
 "3643": "gre",
 "3644": "gri",
 "3645": "gent",
 "3646": "gue",
 "3647": "gloo",
 "3648": "hoo",
 "3649": "hhed",
 "3650": "hant",
 "3651": "having",
 "3652": "iar",
 "3653": "ien",
 "3654": "ivered",
 "3655": "ience",
 "3656": "iately",
 "3657": "ibly",
 "3658": "jam",
 "3659": "just",
 "3660": "lf",
 "3661": "ler",
 "3662": "lve",
 "3663": "light",
 "3664": "lined",
 "3665": "lud",
 "3666": "met",
 "3667": "mot",
 "3668": "made",
 "3669": "mess",
 "3670": "mother",
 "3671": "mble",
 "3672": "market",
 "3673": "miest",
 "3674": "mbers",
 "3675": "noon",
 "3676": "nfort",
 "3677": "ove",
 "3678": "ohed",
 "3679": "opped",
 "3680": "ocked",
 "3681": "olved",
 "3682": "ping",
 "3683": "pet",
 "3684": "pri",
 "3685": "pend",
 "3686": "pite",
 "3687": "pered",
 "3688": "pair",
 "3689": "part",
 "3690": "pens",
 "3691": "pberry",
 "3692": "phant",
 "3693": "rou",
 "3694": "ring",
 "3695": "ram",
 "3696": "run",
 "3697": "rum",
 "3698": "rct",
 "3699": "rustrated",
 "3700": "sid",
 "3701": "sse",
 "3702": "sily",
 "3703": "sure",
 "3704": "te",
 "3705": "time",
 "3706": "tough",
 "3707": "tak",
 "3708": "tiest",
 "3709": "tantly",
 "3710": "uicy",
 "3711": "vin",
 "3712": "vide",
 "3713": "vab",
 "3714": "wo",
 "3715": "wel",
 "3716": "ware",
 "3717": "well",
 "3718": "wich",
 "3719": "wely",
 "3720": "wait",
 "3721": "xious",
 "3722": "xpected",
 "3723": "ys",
 "3724": "you",
 "3725": "year",
 "3726": "zen",
 "3727": "hello",
 "3728": "Ġtin",
 "3729": "Ġter",
 "3730": "Ġtummy",
 "3731": "Ġtem",
 "3732": "Ġtas",
 "3733": "Ġteet",
 "3734": "Ġtumbling",
 "3735": "Ġach",
 "3736": "Ġarom",
 "3737": "Ġahhed",
 "3738": "Ġapart",
 "3739": "Ġawely",
 "3740": "Ġsir",
 "3741": "Ġsend",
 "3742": "Ġsus",
 "3743": "Ġsour",
 "3744": "Ġsupp",
 "3745": "Ġsimp",
 "3746": "Ġsize",
 "3747": "Ġwow",
 "3748": "Ġwig",
 "3749": "Ġwound",
 "3750": "Ġwire",
 "3751": "Ġwrap",
 "3752": "ndor",
 "3753": "ndÃ¢",
 "3754": "ndmother",
 "3755": "ines",
 "3756": "inary",
 "3757": "inosaur",
 "3758": "inctive",
 "3759": "inated",
 "3760": "Ġwake",
 "3761": "Ġwave",
 "3762": "Ġwadd",
 "3763": "Ġwaist",
 "3764": "Ġben",
 "3765": "Ġbur",
 "3766": "Ġbase",
 "3767": "Ġbike",
 "3768": "Ġborn",
 "3769": "Ġbask",
 "3770": "Ġbored",
 "3771": "Ġbaff",
 "3772": "Ġtore",
 "3773": "Ġtoes",
 "3774": "Ġtoast",
 "3775": "rent",
 "3776": "ready",
 "3777": "rease",
 "3778": "resh",
 "3779": "ressed",
 "3780": "Ġhit",
 "3781": "Ġhut",
 "3782": "Ġhour",
 "3783": "ounted",
 "3784": "its",
 "3785": "ited",
 "3786": "iting",
 "3787": "iten",
 "3788": "ition",
 "3789": "itual",
 "3790": "itud",
 "3791": "itchen",
 "3792": "Ġfil",
 "3793": "Ġfut",
 "3794": "Ġfought",
 "3795": "Ġfive",
 "3796": "Ġfool",
 "3797": "Ġfresh",
 "3798": "ery",
 "3799": "erat",
 "3800": "Ġwash",
 "3801": "Ġlay",
 "3802": "Ġlan",
 "3803": "Ġlim",
 "3804": "Ġlitt",
 "3805": "Ġline",
 "3806": "Ġlap",
 "3807": "Ġlined",
 "3808": "Ġcoo",
 "3809": "Ġcel",
 "3810": "Ġcudd",
 "3811": "Ġcards",
 "3812": "Ġcape",
 "3813": "Ġcries",
 "3814": "Ġcrou",
 "3815": "Ġheaven",
 "3816": "Ġpor",
 "3817": "Ġpoo",
 "3818": "Ġpur",
 "3819": "Ġport",
 "3820": "ings",
 "3821": "ingly",
 "3822": "Ġdir",
 "3823": "Ġdot",
 "3824": "Ġdug",
 "3825": "Ġdear",
 "3826": "Ġdive",
 "3827": "Ġdull",
 "3828": "Ġdied",
 "3829": "Ġdaisy",
 "3830": "Ġdaring",
 "3831": "Ġdeer",
 "3832": "Ġdaily",
 "3833": "Ġmen",
 "3834": "Ġmir",
 "3835": "Ġmad",
 "3836": "Ġmes",
 "3837": "Ġmelt",
 "3838": "Ġmudd",
 "3839": "Ġmap",
 "3840": "Ġmach",
 "3841": "Ġmail",
 "3842": "Ġmass",
 "3843": "Ġgor",
 "3844": "Ġgon",
 "3845": "Ġgut",
 "3846": "Ġgall",
 "3847": "Ġgif",
 "3848": "Ġoil",
 "3849": "Ġopp",
 "3850": "Ġoak",
 "3851": "Ġocc",
 "3852": "Ġoohed",
 "3853": "arily",
 "3854": "ising",
 "3855": "isions",
 "3856": "isfaction",
 "3857": "idly",
 "3858": "iders",
 "3859": "oms",
 "3860": "omped",
 "3861": "ating",
 "3862": "atched",
 "3863": "atened",
 "3864": "atient",
 "3865": "ation",
 "3866": "atitud",
 "3867": "llway",
 "3868": "llip",
 "3869": "llect",
 "3870": "nected",
 "3871": "nexpected",
 "3872": "lephant",
 "3873": "lete",
 "3874": "Ġthri",
 "3875": "Ġthous",
 "3876": "Ġthird",
 "3877": "any",
 "3878": "aned",
 "3879": "ange",
 "3880": "angerous",
 "3881": "immer",
 "3882": "immed",
 "3883": "Ġhabit",
 "3884": "Ġhalf",
 "3885": "Ġhallway",
 "3886": "ors",
 "3887": "orking",
 "3888": "orant",
 "3889": "ety",
 "3890": "etter",
 "3891": "Ġinve",
 "3892": "Ġinfant",
 "3893": "ĠSay",
 "3894": "ĠSig",
 "3895": "ĠSomet",
 "3896": "ĠShar",
 "3897": "ĠSummer",
 "3898": "ĠSee",
 "3899": "onst",
 "3900": "onse",
 "3901": "Ġema",
 "3902": "Ġemer",
 "3903": "Ġeff",
 "3904": "Ġelephant",
 "3905": "ces",
 "3906": "Ġbee",
 "3907": "Ġbeep",
 "3908": "Ġbelly",
 "3909": "Ġbeating",
 "3910": "iring",
 "3911": "ĠHi",
 "3912": "ĠHur",
 "3913": "ĠHave",
 "3914": "ĠHenry",
 "3915": "Ġunexpected",
 "3916": "Ġnic",
 "3917": "Ġnames",
 "3918": "Ġnast",
 "3919": "Ġnorm",
 "3920": "ows",
 "3921": "rible",
 "3922": "Ġsheet",
 "3923": "ĠsheÃ¢",
 "3924": "Ġsoar",
 "3925": "Ġsoil",
 "3926": "Ġsoak",
 "3927": "Ġsoaring",
 "3928": "Ġsolve",
 "3929": "stig",
 "3930": "stop",
 "3931": "storm",
 "3932": "Ġyel",
 "3933": "Ġyum",
 "3934": "Ġyester",
 "3935": "ĠHeOnce",
 "3936": "ote",
 "3937": "othing",
 "3938": "othes",
 "3939": "ils",
 "3940": "ilure",
 "3941": "ilty",
 "3942": "iliar",
 "3943": "Ġstare",
 "3944": "Ġstro",
 "3945": "Ġstuffed",
 "3946": "Ġstomped",
 "3947": "uty",
 "3948": "utter",
 "3949": "ampered",
 "3950": "ĠIgloo",
 "3951": "Ġring",
 "3952": "Ġrum",
 "3953": "Ġrust",
 "3954": "Ġras",
 "3955": "Ġrap",
 "3956": "Ġraking",
 "3957": "Ġrather",
 "3958": "Ġriddle",
 "3959": "Ġrumbled",
 "3960": "Ġrumbling",
 "3961": "Ġritual",
 "3962": "ĠĊĠ",
 "3963": "Ġups",
 "3964": "Ġupside",
 "3965": "ĠyouÃ¢",
 "3966": "itted",
 "3967": "itten",
 "3968": "ittered",
 "3969": "entured",
 "3970": "aded",
 "3971": "ĠweÃ¢",
 "3972": "Ġweigh",
 "3973": "Ġweighed",
 "3974": "als",
 "3975": "alous",
 "3976": "Ġplaytime",
 "3977": "Ġshake",
 "3978": "Ġshade",
 "3979": "Ġshave",
 "3980": "Ġshine",
 "3981": "Ġshivered",
 "3982": "Ġreun",
 "3983": "Ġrequ",
 "3984": "Ġreach",
 "3985": "Ġreaction",
 "3986": "Ġrepair",
 "3987": "Ġnecess",
 "3988": "Ġforwards",
 "3989": "unk",
 "3990": "unately",
 "3991": "chase",
 "3992": "changed",
 "3993": "Ġwhiten",
 "3994": "Ġassured",
 "3995": "Ġkitchen",
 "3996": "ĠTV",
 "3997": "ĠTake",
 "3998": "ĠTry",
 "3999": "ĠTear",
 "4000": "ĠTwo",
 "4001": "Ġonwards",
 "4002": "ĠgirlÃ¢",
 "4003": "Ġangri",
 "4004": "Ġanxious",
 "4005": "Ġexper",
 "4006": "Ġexisted",
 "4007": "Ġexpected",
 "4008": "Ġexpens",
 "4009": "Ġexchanged",
 "4010": "ecause",
 "4011": "Ġlifting",
 "4012": "Ġweren",
 "4013": "Ġboom",
 "4014": "Ġbody",
 "4015": "ĠbondÃ¢",
 "4016": "Ġspin",
 "4017": "Ġspend",
 "4018": "Ġspun",
 "4019": "Ġspic",
 "4020": "Ġspear",
 "4021": "Ġspice",
 "4022": "Ġspea",
 "4023": "Ġspell",
 "4024": "Ġspine",
 "4025": "Ġspied",
 "4026": "Ġspring",
 "4027": "ĠBy",
 "4028": "ĠBoth",
 "4029": "ĠBeing",
 "4030": "ĠBetter",
 "4031": "ĠBecause",
 "4032": "Ġouting",
 "4033": "Ġoutfit",
 "4034": "Ġoutrun",
 "4035": "icing",
 "4036": "icate",
 "4037": "rounding",
 "4038": "ĠArct",
 "4039": "Ġmoms",
 "4040": "urried",
 "4041": "uringly",
 "4042": "ĠIts",
 "4043": "ĠItÃ¢",
 "4044": "ĠMr",
 "4045": "ĠMy",
 "4046": "ĠMay",
 "4047": "ĠMum",
 "4048": "ĠMaybe",
 "4049": "ĠMama",
 "4050": "Ġhelmet",
 "4051": "earing",
 "4052": "Ġgoes",
 "4053": "Ġhelps",
 "4054": "ĠLater",
 "4055": "ĠListen",
 "4056": "Ġlocal",
 "4057": "Ġlollip",
 "4058": "Ġdoct",
 "4059": "Ġjam",
 "4060": "Ġjuicy",
 "4061": "?\",",
 "4062": "Ġseat",
 "4063": "Ġsewed",
 "4064": "Ġworries",
 "4065": "Ġclap",
 "4066": "Ġcloth",
 "4067": "Ġclothes",
 "4068": "Ġbackwards",
 "4069": "Ġbackpack",
 "4070": "ĠEven",
 "4071": "Ġfact",
 "4072": "Ġfash",
 "4073": "Ġfasc",
 "4074": "Ġfacing",
 "4075": "Ġfaced",
 "4076": "Ġfailure",
 "4077": "ssions",
 "4078": "Ġalive",
 "4079": "Ġalready",
 "4080": "Ġfeather",
 "4081": "ags",
 "4082": "iew",
 "4083": "ieve",
 "4084": "ievab",
 "4085": "Ġgets",
 "4086": "plished",
 "4087": "Ġchill",
 "4088": "Ġchop",
 "4089": "Ġchuck",
 "4090": "Ġchilly",
 "4091": "Ġchose",
 "4092": "Ġchanged",
 "4093": "Ġchopped",
 "4094": "Ġchange",
 "4095": "Ġnoises",
 "0": "<|endoftext|>"
}